0000000111110101000000000010110100000000001110011111111010010101111111101100001011111111100111111111110011000000000000110111000100000000010011101111110000101100000000101100110100000001010010000000000100000010111111001110111100000010111000011111111001000111000000011111111111111110100111001111111100001101000000000011000000000000010110111111111110101100111111101010010100000011001010010000001010101111111111111001001000000001011101000000000100001010111111001000010111111111010010110000001011101000111111101000010000000010110111110000001010001100111111110111100100000010010111101111111000011000111111101000100100000000001100101111111100101111000000001011000111111110011111101111111101011100000000100111011000000000001111111111111010100111000000001110101011111110101101010000001100101001000000011011000000000000001100100000000001000010111111111000111111111110110010010000000100001101000000100110001011111011111100100000000010111000111111101000111011111110001001001111111000011100111111111111100011111101111000110000000010111101111111110101101011111111100111000000001101101101000000010110010000000000111110001111110001001101000000000000110111111110101011110000000100101110000000011010100000000010010000010000000101010101111111101011010011111101000100000000001010010110000000001100111000000010000101101111110101111110000000011011101100000010110000111111110111010111000000000001011100000001100111001111110101001010111111011001110000000100011100001111111100001001111111110001010111111111011110110000010001011101111111010000111011111101000101110000000000101101111111001011000111111110011110011111111111110011000000001001100000000001011010010000000101100011000000001001010011111111010001101111110110110010000000000010011011111111101111101111110110000011000000010001100000000000110010100000000100000001111111101100100111111110110110100000000111101001000000000111011111111100010110110000000001101001000000000001000000000001011010011111111100010011111111101100101100000001110100101111111010001101111111010110001111111111111000001111111100101101111111111100100011111110110001100000000011100001111111101101010011111111100100111111111000000010000000001101100011111110100001010000010011001011000000011101100100000000001110010000001001011100000000010000010011111111010110001111111000001010000000101100010111111111100001011111111010011001111111100101001000000001010010010000001101001001000000100000101011111110111001000000000001100011111111101010101111111111100011000000000000011111111111101010100100000000100110101111111010000000000000101011011011111101101110100000000101001111000001001111111000000001111011010000000110011101111111100011010100000001000001001111111010011001111111110100011100000010000000010000001110110100000000111101010011111110111111111111110101100000000000010100000000000001000101001111110001111111000001000111110100000000111000101111111100100001111111100000110100000011110100000000000110011101111111001100001000000100011010111111101110101011000000011110101000000001010101111111111111111000111111001101111000000000110010110000000010010011111111011101111000000011110001000000001011111001000000010000110100000011101111010000001011000001111111011111001111111100001100000000000111100001000000000000000000000001100011101111111011011011111111010001011000000001111010000000001101011101111111111001101100000000011001110000000011110001000000101001100011111110010110010000000111110111000000000100110100000000001010101111111110001001000000110101010100000000011000001111110101111000111111111000001000000000010000011111111110101111000000100111001000000010001000101111111000110011000000001100010000000010001010100000000001011110111111101110110000000010000000010000000101110100111111100000101111111111010010110000000110001011111111110001010000000000100100000000000000000001111111111110110011111101011011100000000010110100000000000000011111111101001000000000001010101011000000100000100100000011010011100000001001011011111111111100111011111101110101010000001000111111111111100010101011111101100110100000000001111100000000000111110100000001010111111111110110000000111111100100100000000000100001011111110111010011
0000001011100000111111011110010000000011101000000000000011010010111110111101101100000000001101111111111100000010111111101000000000000010010111101111110001100100111111001101101011111110011111110000000110111000000000000101011011111111101001101111111011100100111111111001111111111111011100110000000101100000000000000010011100000001111110011111111100100011111111010111100000000011111100110000000100000110111111100111001000000001110100010000001001100001111111101101001011111110001111000000000110111011000000001111000011111111001110101111111110010111111111111011101100000000110100110000000011000101111111011011010011111111010010110000000101010110000000010010010111111101101110001111111010000111000000011010101111111101011001010000000100111110111111101101011011111111111000000000001011110110111111111011010000000000100010100000001110000000111111111000110100000000001001110000000010101000000000001000011011111111011011101111111010000111000001000101101111111111000110111111111100100000000000001001101000000000000000010000000000001101000000100010011111111110111001010000001010110001000000010001101000000000100111001111111011110000111111111111000000000001011110101111110110111101111111101010111111111110111110110000000100000101111111101110101100000000101100101111111010011101000000000100000011111110101111101111111010111001000000010111000111111101011110111111111000010000000000010101100111111111101000010000000000010010000000100001001011111110101001011111111100111011000000011000000011111011110111010000001100011001111111101011011111111110110010111111110111000110000000010011001000000010001011101111111011000000000000011101111000000001100001011111111010011100000000011000100100000001111011101111111100100010111111111101010100000010110001001111110110111111111111110000101000000010101101010000000110001110111111100001001111111110111101011111111010111001000000011101100000000001111011000000000100000011111111011111001000000011010110111111111111111101000000011100111011111110111001010000000110001110000000001011100100000000110111111111111000111010000001000110111100000011100011010000000001010000000000010010011111111111011101011111110101010101111111111000000100000000100011010000000001011101111111011111100111111111100001111111110111001100111111001101011011111111101101100000001010101011111111001010111000000000011001011111111101111110111111101110001000000000001010110000001010000101000000000111111111111011101000000000001011101010111111011011010000000010110001011111111010000011111111111010001011111110110110110000000110000111000000000010111111111111111111100000001101010000111111100011111100000000000100101111111101000000000000101010110100000001011001010000000011101110111111110100011111111110101110111111111111111111111111011000101111111101101010101111111001101001000000101101010100000001100010001111111101111010000000010111111000000010001110000000000000100101000000100010000111111111101010000000000100111010111111001001111100000011000000111111111011100100111111010111110100000000100011011111101111001101111111111111010000000001111111011111111010111100000000001000100111111100111101100000000000101101000000001010101100000001010111100000000000111010111111000011100100000000001011000000000101011011111111111110011100000011000001101111111000011000000000100011101000000001001100011111111011100101111111101100011000000011101011101111111101000110000000101001101011111111011110101111110100110100000000100011111000000010011011000000000010111001000000011000100100000001001100100000001101001011111111100010010100000011101100011111111111011011111111101101010111111111000111100000001101001100111111011110000000000010100100010000000010011010000000010011000111111110000100100000000100110001000000010111110100000000110000010000001010010101111111111000010100000000100011111111111000011101111111100010110111111110100101100000000100000110111111011101111100000010111111001111110111100101000000101001100100000011011100101111111000101111111110110100010111111111100101111111111011101100111111101000001100000000010111101111111100011111000001001110011100000010011010111111110001101000111111010010101100000010100000001111110101010110
0000000000011011000000001111001011111111010110110000001010000111000000011100110111111110110010011111111110001010000000010011010111111111100001010000000100111110000000011100011111111111101110011111110011001101111111111010011011111111000010011111110111110011000000010000111000000010101111001111111101111110000000100001110011111110100100001111111111111011000000110010010100000001001111110000000101110010111111010110001000000001110100000000000001011110000000000101111111111111000111111111111101001110111111111000111011111101011110011111110110000000111111101111010000000000111010110000010000011101000000100011110000000001010001110000000111101101000000110100010111111101011000010000001101000110000000101000001011111110110111111111111011010100000000110001100111111111101000101111110011001110000000001010000111111111001110001111111101010011111111110100010100000000111000000000000011000100111111011010111000000001100010111111110111101010111111101000001000000010001000100000000011011000000000011100010100000001101101010000001010111010000000001101001011111110011101111111111000010111111111100010011100000000111110101111111000100111111111101111010100000011110110101111111001111001111111100010100111111100001100001111111000110100000000010000001100000011011000000000000110010100111111110100111111111110110001111111111011000011111111111110000011111111001110001111111111010111111111100001011111111101111110100000001100010011111111110110000000000001001100111111111001101110000000100100011000000000000110000000000001010111000000001110110000000000010100110000000001000110000000000111100011111110101010100000001000011011000000000011001111111101100111110000000110100110111111011011011011111111110101101111111101110111000000100011001111111110110010011111110011000110111111011000001111111110101010001111111101100101000000110001001111111111010110010000001001001000000000011100110000000000100010010000000000010111000001000010011011111111101111011111110110101011000000110001101000000010110100101111110100001011111111100110110100000011011011111111111111101101000000001010001111111011001011101111110101001100111111110001111000000001011001100000000011111110000000000100001011111111101000101111101111010110111111000110001011111100100110101111110111010111000001001001101000000000101100101111101110011100000000010111100111111110110100011111110011111000111111011110000111111110001011001111111011010101000000100001110111111110011001111111111101000111111111010101011011111111010001111111111101110001111111011000000000000010100011110000000101111000111111111111011000000000001101001111110111001101000000111101001000000010000101100000000000111000000000111111111111111100110110111111101111011011000001000011010100000000010000101111111110000100000000010100001011111011110100000000000011111010000000100011110000000010000010001111110001111000000000010101100100000000101010100000000100100111000000101101011111111111100111111111110100100011000000100001101011111111111100111111111001100111111111100011100111111100011100111111111101110001000000101010100111111111011110011111110010010010000000111101101000000000001001110000000100100111000000011111011000000010011010001111110011001101111111010110010100000011011000101111111010111001111111010011111111111011101110001111111010000001111111110001011000000000111101100000001110100001111111101111111100000001110011101111111110011111000000001001010011111101110101001111110011101001111111100010111100000010100101010000000011111000111111110001110000000100000011010000001000111100000000000101001011111111111001100000001111111111000000100100001111111101100000110000001010001000000000000110011111111111000111000000000111010010111111111101110011111110111010001111111010001101000000011100100100000000111000110000010001011101000000011010110111111101100010010000000001010000000000001010101011111101010010001111110100100101000000101110000000000000100101000000000111010101111111110100010100000000011111100000000100010111111111100111101011111100111001100000000011000001111111110011101100000010001101011111110101000101000000010101111100000001011000111111111000110011111111100000010000000000010001100000000010010000
1111110100001011111111011111001011111101110010000000001110001001000000010101011100000000001001010000000000000111111111101010100000000001111010111111111011100001000000111011011111111110111001001111101010111000111111100100100000000011101011001111111011100110111111100111011011111101010010011111101110000001111111111010111100000010011100111111111110010001111111100001100100000011100011000000000010110111111111100011010100000000100010000000010001010011000000011111100111111110010110000000000110100111111111000010100111111110111001001111111000111101111111101101101011111111001101110000000110111101000000000101010100000001011000110000001110000101000000000100101100000000010101110000001010101001000000010001001111111100111110010000000100001010111111110001111100000000100111011111111010100101111111101011111111111101000100100000000011011000000000010110001011111111010110110000000001100101111111111110101100000011000000001111111000101001000000000011100011111110111011011111111000110111111111101110101000000010001101111111111111101010111111001100110000000010010001011111101101001110111111010000101111111111100001110000001100100100111111110011001100000000111010111111100111011001111111110010000011111110101000110000000100100011111111011001101100000000110110011111111010111001111111010001000100000000001111011111110010011011000000011010111100000010011100111111111111001000111110101010011000000010011111101111111000000010000000110001110000000000100111010000010100100000111111110111000111111101101110101111110011001000000000110011000111111101011110111111111111100001000000000111010100000010010011010000000010111001111111101110000011111100111110010000001000000001000000011000111100000001100101001111111000100101111111110001010100000000100100010000000001110001000000011101011000000000111100100000001000110100000000011101010100000010100001000000000000101000000000011100010100000001011000011111110110111010111111110111010100000001010111011111111100010110000000000011001111111111001000000000000000110100000000111001011111111111010111001111110111111011111111110011110111111111000101111111111000101100000000000011011000000011101011100000000011001000111111010010100011111111000111101111111001011001000000100001000111111110111010111111111101111000111111101110001100000000011000001111111000110101000000001000100000000011000110100000000110100110000000001011111100000000101011101111111100111100000000100011001000000000001101101111111111011010000000001101001000000001111110101111111100011010000000011010000111111111010010011111111100001101111111111101001000000001101010110000000111010000111111111100100000000001001001101111110011010110111111011000000000000001010010100000010100000011111111011000000100000001110010111111111000111000111111000111100011111100010111010000001011010010000001010101101100000000011000111111111000100111000000101111011100000001001000101111110111101111111111100011101111111110000111101111111011001011000000101000100111111110010001010000001001110111111111010000100011111110001111100000000100000010000000110011100111111111100011011111110110011001000000001001001000000000110011000000001010011100111111011100000111111111011000000000010000000111111111010001110111111100111000010000001011000011111111111011001111111100000000110000000001011100111111011001101111111111101100011111111000110011000000100001001100000001000000001111110100110000111110110000101100000000001000011111110111011001000000101101110100000001110110100000000010110011000000010011111011111101110110111111110110000100111111100100111100000010100001100000010001000010000000010011010011111100010110000000011000111101111111101110100011111111101111010000000011100001000000111010100111111101110011111111110000100011111111110000001111111110111110001111111010011010111111111111110111111111111110110000001111010001000000010111010100000000010101101111101101000100000000010100111100000001101111111111111000110001000000010010110100000001110010111111111011001000000000010111110100000000010100100000001000100010000000001101110111111101010100011111111010111110111111100001100000000010001100100000000111110001000000000010010011111101100100001111111000010010
1111111001100101000000010111010000000000001001110000000010111101111111111010100000000000011001100000000001101101111111111011110011111111100000011111110101101100111111100000000111111101111000000000001011100000111111101001110011111110000100101111111111110110000000110101001100000001110111101111111011100100000000010100100100000000001011111111111001100101000000001101000100000010110110100000000011000001111111101100000100000100111011101111111010010010111111011111001011111110110110000000000000110001111111011110001100000001000111011111110101000011000000010111010100000100110110011111111001111011111110100001110000000110010111011111111011011011000001000100101011111111110010101111111111001011111111000110100000000010000011001111110010110001000000001100000100000011011010001111110111101101111111111100010111111111010011101111111010111000000000011111010100000010100010100000000100001100000000100010100111111110001000011111110100000000111111110010011100000010001100000000001010110000000000100000111111111111001101000000001000000110111111000110010011111101110101111111111100110001000000101110101000000001100110110000000101111101000000100000000000000000101101100000001001110110000000010100110100000011011101010000000111000100111111001110100011111111001100111111111100100010111111100101110011111111101101110000000000101100000000100011010100000000100011101111111010100100000000010110010111111111010010011111111001011010111111101010011000000000100000110000001101010100000000001110101011111110001001010000000101010101000000000010100000000000010110111111110110100001000000001000000011111100011000111111111111111001000000000101001100000011011000001111111111111100000000000101010011111101011011101111110111011100111111101101010111111111011111101111111000011111000000101000011000000000011010101111110011011100111111110010100111111110100001100000000001010100000000011010010011111101011100010000000110000000111111011011100100000001101001010000000110101011111111110010010011111111000100101111111110001000000000000011111011111111011100100000000000100000000000010101010011111101010110111111111011111110111111110001010100000000000001010000001000011100000000001011110011111101001100010000000110110001000000000111110100000001100000110000001101100110000000111001111100000000000010001111111101101111000000011000111000000001111101100000000101001101000000100101011000000010101011100000000101010000111111001101100011111111001111001111111111011111111111110010000000000001001111001111110101011111000000110000000000000000110110001111111000101000111111010001011100000001110100110000000000111001111111111111011111111110100010010000000011010100000000011111110111111111101011010000000100011001000000000010010000000010000110100000000011101010000000001110011011111111000001011111111111111101111111110100100111111101111000000000001000101110000000010110000100000001000011010000001011011111000000101001001100000001110010011111110100001111000000000110011100000001110111111111111111011111000000001011110011111111000111110000000000100100111111100010000011111111001001110000001111001111111111110000000100000001111000111111111000010010111111111110011000000001101101101111111101110100111111111001111000000000100001000000001010111101000000011011111111111111010110100000001001100100000000000100001100000001010001101111111100011000111111100000010111111110101001110000000011111110111111110110110100000000001111000000001100100110000000010111010100000001001100011111110101001001000000100100101000000001010001100000001000010010111111101000111011111111001101011111111101111000111111011100000000000000101010010000001000000111000000000101000011111110101100011111111110111001111111100011101100000000100110011111101110011001000000011100110100000001001110101111111010100100000000010011101100000010001001001111110111100100000000001010000000000001001010101111110111110000111111011010010100000100011011100000001000111010111111111001100011111111000001000000000100110110111111100111110111111110010000100000000000110110111111110111010111111110001111001111111111110000000000100010001000000000000011001111111011001001111111001001001000000011000001100000001001011000
1111110001111110111111101110011111111101011111010000001000100001000000000011100011111111011101100000000101101010111111100000111100000011010010100000000010001111000000100001101000000000000101111111111101110110000000101110011111111111100001110000001010110111111111010010000100000000011010111111110110011110000000010110011011111111011001001111111011010100000000000010001000000000001111100000000111011101000000010010010000000010001111101111111111011000111111100111010011111110011110111111111100010011111111110100110000000010001101111111111101110100000000000001110000000011011000111111111100011010111111001011110011111111111011011111110111111100000000010001001011111110100000100000010001010101000000001100000011111101001111011111111001111110000000011000011100000000000110110000000101110100111111001011101000000000100110101111111001100011000000010011000000000010010000011111111101010010000000011111111111111111011111000000000011010110000000001011001000000000110001101111110100010111000000100000100011111110100100011111110001111111111111001101110011111110001011111111111100001101000000000100100000000000011101111111111010010111000000011111010100000001001101000000000011111000111111101000111000000001001000110000000111001011111111111001110011111110000100000000000101101110000000010000000011111110100101111111111001101101000000101001001000000011011111101111111100110010111111111101001100000010011110100000000000011000111111001000110100000000010010111111111010100011111111111101001000000001100000001111111100001010111111110100111111111101011001000000000010110010111110110110110100000001010010001111111101001001000000010100000100000000110110001111111011101100000000101000010111111100111101001111111101011111000000000111101100000010100111100000000010011101000000010010010000000001000001000000001001100000111111100000101100000001001101011111111000110110111111011110101100000010010001110000001000111010000000001010100100000000100100000000000110101011111111111111001000000010100101110000001101100111111111111101101011111101100100110000001010110111000000000110101000000001101000001111110010011110000000101100011000000010110111100000000100010011111111011011000111111111111110111111110111100001111111011011011000000000100101011111110110110011000000011011100100000000100111011111111111101100000000100001100111111100100001111111111111100101111111100011000100000010011111100000001010010010000000011011011111111111000100110000000010101110111111101011010100000000101011000000000000110110111111100111011111111111010001011111111001000011000000100100010011111110100010010000001010111111000000000111111011111111110001111111111011011111000000001001101111111100100011110000000110110000111111100010010011111110000110110000000010100111111111111001001011111111000001000000000101011011000000000101110111111101000000110000001010010001111111111110101111111110011010111111111000001101000000001101100000000000000000000000000110001001111111110011000111111111011001110000001000101110111111111100010111111111000001111111111110000010111111110100011111111111011111110000000001010110000000000010000100000010001111001111111100111100000000001001000000000001001001110000000000000110111111111110100111111111111111101111111100000100000000010011000111111110110001001111111010111100000000100011100100000000111100110000000010010001000000010001011100000001111111010000001010111110111111110000000111111110101011100000000111001110111111100101000011111111111110110000000100101010111111110100001000000010100010010000000111010100000000001011001011111111100111000000000111000110111111100011100111111111001011000000001110000000000000000111010011111111000011110000000010100110000000011011010111111110110100001111110001010010111111101001000000000001100011011111111111110100111111100010111011111110001100011111111011101100000000010011000111111110001111010000000100100010111111111000010111111110100001101111110100000011111111110001011011111111000111110000000010000011000000001101100011111111001110100000001000000110000000001000000011111111011010000000000100001110000000000100101000000010010111001111111011000011000000000110000011111111110101111111111000010011
0000000000001110111111100100110100000010101011000000001000101001111111011101011100000010111000111111111100000000000000000010101100000000010110001111111111011110000000100110100111111111100100100000000010001111000000011011100111111110101001110000000001001001111111011111101011111111001111011111111000010011111111101000010111111110101010000000001101011100111111110000000100000000100000111111111101011110000000001111101100000011010001001111111111000000111111100100001011111111100100101111111111011110111111010011011111111110001111101111111100001111000000000110101011111110100000000000000100110010111111110100000000000000000100111111111110001100111111101001101011111111110001011111111100110111000000010010101000000001000110111111111100111011111111111000010011111111101110000000001110001001000000001011111100000000111110110000000100111010111111001110001011111101111000100000001110010011111111100111010000000010001011111111111011011001000000000111000100000010011101111111111100111001111110111101101100000010011001001111110101110100111111010000101111111111000101111111111000011101111111110011000011111011110010000000001010101101111111100101010111111110100001110000000010110010111111111110000011111111110010000000001011001100000000011100010011111011010111100000000101100011111111110010000011111111100001001111110101000100111111011010101111111111001010000000000001010110000000000110000000000000011111110000001110101110000000100000001100000001000000001111111100100100000000110100101100000000001100011111111011010111000000100111000111111101111001010000000011011000111111011111110100000010011111010000001010110111000000000100001111111111010100010000000110010111000000001101010111111111000000111111111010010111111111010010000100000000101101110000001000001010111111101001010111111111000000011111111100000111111111110100011011111111101111000000000111110101111111111100110011111110011100110000001000101110000000001011100100000000100000000000000101110100111111110011000111111110100000000000000010100011111111111001111111111101010011011111110100010001000000011111010011111011100000111111110111011000000000000101010011111111100111100000001000101111000000101010000000000001111100001111110001000101111111110000000011111110111110110000000010110001111111111010101000000010110010010000000001001010000000100111101000000001111111110000000010110110111111111110110000000000111011111111111001000000111111001110111011111110011001000000001001001011111111110000101111111111100010001111110001000100111111001011011000000001101011111111111100110100000000101100000011111111011011000000000001010100000000000110110011111110000011001111111101100111111111101010110011111111010011101111111100101111111111100010010100000011010110001111111001110110111111010101011100000000010101000000000100110110000000010110010111111110110010000000001000000000111111100100111100000000100111101111111110110001000000100010111100000001001000111111111011111110111111100010101000000010101000110000000011000010111111111101110011111110000001100000000000010000111111101110111000000001011100001111111010110010000000011001101100000000101000001111111011001000000000101010101000000001001001010000000001101001111110100001100011111111101010010000000011100101111111100010000111111011011010001111111110011011111111101001111111111110111000001111110111000011000000001111001100000001011010001111110001000011111111111010111011111101111010000000000101100111000000101000000000000000000000110000000011110100111111101111000000000010111001101111111111000111111111011111010000000000111001110000000100010110111111011100111011111111111110100000001000101111000000010010010011111011110001001111110111010001000000001010001000000011010011100000000000011100000000001111100000000000110101101111110101110111000000011010111111111110001101011111111100000111111111011010000000000001000101100000001101100110000000011000011000000011010000000000000000000001000000001010000111111110001001010000000111111000000000010101011100000000010100011111111101000110000000011110000111111111001010001111110010011001111111100001111100000000110001001111111110100110111111110100100100000000001001100000000100001010
1111111110010000111111010101110011111110000111101111111111010110000000001111110000000000011111000000001100100100000000001001010011111111001101100000000000110011111111010011001100000011101100101111111111000101111111111000100011111110011110001111110110110110000000000100011100000001110001111111111111001011111111101000011000000000010011010000001000111101111111101111010000000010001111010000000001010010111111011001111111111111011110100000001101010001000000000100100011111111000101110000001110101000111111101011010011111111100111000000000110101111111111111111010100000001001011101111110001011111000000010101001111111101100000010000000011011001000000001100110111111111101110110000001101100100000000110110110011111111010110010000000011101010000000000011011011111101111111111111111111111010111111010011000100000001111000010000000010100101111111011110111000000001011011010000000110011100000000010011100111111110011101100000000011110101000000000100100011111111000111001111111100000110000000000011110100000001000011001111111111010011111110111110010011111110011110001111111001001010111111100000100100000001011110110000001101011101111111100010100000000000010001111111101111101110111111100001111011111110111111010000000011001110111111010101101000000011000110011111111001011011111111101100010100000000100101011111111000110011000000011101000100000011011001101111111011011110111111100101101111111110101110110000000111101100111111110010011011111110001101111111111110010011000000001100100011111101100100100000000100111101111111011101000111111111101101111111111100110111111111010110010111111111001011100000000011010110111111001010001111111101100011100000000100000100111111011111110111111011001011010000000011001100111111011000111100000000101110100000000011110010111111110100111000000000100011010000000000100010000000110011011000000001101011111111101111110110111111100110000000000100001011100000000111100110111111111001011000000010001011111111111001111111000000101011011011111110011001011111111001010110000000000010111100000100000010011111110101001001000001001101110100000000101100011111111000110001000000111110100000000000100111011111101011111000000000000001000100000000110100000000000111011101000000010110000011111111111011011111111101010100111111110000001000000001010110010000000101111010111111100111101100000011111101000000000111101100000000001101110100000010001111010000000000010110111111101000010011111110100101010000001111010011111111000111101000000001101100111111111110000101111111100101101100000000110111011111111100100010000000110000011111111110101100000000010000110011000000101101111011111111011011110000001011000101000000011100011111111101010011101111111011101011000000101100001100000000000000001111111100110110000000110010101011111111110011010000000101010000111111110000010100000011100100111111110100010110000000101100100111111101011101110000000100010001111111011100101000000001001110110000001101010010000000010000011111111111010110001111111101101111000000001100000000000000001001101111111010000000111111111101110011111111110101100000000110110110111111100111101000000001000111011111111101000000111111111000101111111111011010101111111100110001111111010101101000000010110101110000000101010010111111110010010111111111101000101111111011100110111111111110110100000000111000011111110010101111000000101000101011111110111001011111111000100000000000000110010011111111011101101111111101100110111111000011010100000000000100001111111011111110111111111001111111111111001000111111110100111110111111011101111100000000010101000000001111111000000000100100100100000010000011000000000001000111111111111011001000000001011110001111111110101110111111110011001000000000101001011111111100111111111111100000110011111111010111010000000001011000111111111011101111111101110000100000000110010111111111111101101011111110110000101111111001100011000000010001001100000001100011011111110111011011000000100010000100000000111001101111111101110100000000010000001100000011110101001111111000011010000000110000011100000000011011001111101110100011111110111101100100000001010101000000001010100110000000100111011011111110111110010000000111001111
