00000000001001010100000011110100
11101100101111100010001100101001
11101100100001110100000011000100
00001011011010011000100010100011
00010111100011010110000110111110
00001000010001101011001100111001
11111000110111001101111010110011
00001101011010001110001001011000
00011000001010101001100001110110
00011000111000111011000011000110
11111110000011010010101111100100
11100001011101100000001001111100
00010011010011101010111111111001
11111000001110010111100100111110
00000000010100100010101001110010
00111000101011010110001010101011
11111100010111110110011100010100
11111000010111100111011010101011
11101011110000010010001110010101
11100101010110011100111001001111
11001101111011000101010101111010
11110010110110001110001100011111
11110111100001000110010011100110
11100111000000001001100111100000
11110001101110010101111011111000
11111111011110010000110001111001
00001001001101011011111111011110
11011010000101101101001101110110
00001111100011000011011110111101
00001000110110010011110010101001
11110010100011011001000000010100
11101010110001010000100001111001
11111010100010110001010011110110
11011011100010100100101110001111
11010000110111001000010111100111
11110111010011110001000010000011
00011101010111101100100110100110
11101100000110100101001011110111
11100010010100100011011101101010
00000100101000000011000110100010
00001010010100001001101111111100
11110010010110111001010100011011
11110011111100001111101111100011
11011111011110000101100000100101
00011111100001010110001100101111
00000010001001100001100111011011
00000100011100011111101100010100
11111100101100100000111100110010
00010001101010101101011010101110
00001011010111111110000100100011
11110111011111010110000111110100
00011011100111000010111111000011
11101111000101100101101000110000
11110111100101100010011101001011
11111010011010100010010010101101
11111001110010011011100111100000
00111100100100111111000100001000
00001100111000001000100111011000
11110111001011011010010100010110
00011101000101111100111011011100
00000001000000100000000101100001
11011001001111011110011110110100
00011101111000001101101011100011
11110001100010110001010110110100
00010011101001101000111111111010
11110111000011011001111110010011
11100101001101010011111001101001
00011101101101101001101110110100
00000111010010011101001100000101
00001110001011101100100010111011
11101101110011000000011111110111
00110111111111010111001110101101
00011111011111001111111000001100
00000010001000001011011011100011
00010001101001100010010101101001
00001101110110110011111010000111
00001101101011101000011011101001
11111001111011101101011110001011
00000000100100111111110000001100
00100001011111100110011000011011
00001000100000000010010111000100
11111010100010010110000001010001
11110000101111110110111110111001
11100001001011111100100101100100
11010000110000011001110100000110
11011001101001111011001110000011
00010001110001001001110000000011
11101100110111111001111001110011
11111000110000001000000000111000
00000110100101001010001000011101
11110000000100100001111011000111
11011111111010011111011100001110
00011010001011010010111101100100
11111111100100101010010101110100
00000001010111000100111000110111
11101000111100110000001110000000
11111110010100000011100111010010
11011100011010111110111000000011
11010010101000010011000001111000
00001001010101011001010010110101
00010101001111100111100001010111
00001110011111011110101100101101
11100111101110000111110000011000
00001010111100111101111100110100
00010111100100101101110100111011
11110110101010010111100100101111
11101100111101110100010010001110
11110110111101001000011010011101
00010001110010110110001010000111
11110000100100000001010001110010
00001111001110001001111001111001
00001100110100011100100000011110
11111010111010100000000010110001
11110100100110001010111101011010
00010011000000101101100000111101
00110100101010100010001000101001
11100010110011100010110111000010
11111010111110111101111110101110
11110001000101010111101110011000
11111010101010110001010110110101
00011001111001101010001110011101
11101110100000001000101110100011
00011100000010101101100011011000
00001001111000011011010000010001
00000000000110011100110001111010
00000110001110101000111010011110
00001001110011010001101111110011
11111110110000001100010100101010
00001100100010100101100010010110
11111100011000110110100001011110
11110111010101001101101011000110
00010011100000110101100110010000
00010010010011000000100100110110
11111101101011100100110101100100
00010001110000100100100101011101
00000001010010001010000011001101
00100001111001011110100110010110
00011010111000010001100111110010
11111110000110101010110010111010
11111010111101000011000110101111
11110101001011111011000011011111
11111111101111000110000111110101
11110110011010000111000100001100
00101110001100111110111001101100
00001101100111010100101001110001
00000001101111101011000100111100
11100111001010000100101001000001
11101011000101100001110011100111
11001100011110111011000111101001
00000001101011101101010000010000
11110011000010100101001110010010
11100100011000111100011011100011
11111110101010100010111000000111
00000111001011111100010001100001
00000010010000100001110110111001
11110110010001010100110010110010
00001011010001100001100111011100
11110101000001100000100101010001
11111010001001110100000011111001
11110001111001111011111110000011
11110000111100101110011010000011
11001100000110001010110001011111
11001001101111100110110100011010
11100110110111000100100010001111
00101001111100101011001111100000
00001011010000010000100000100010
11101100111101000001100011010010
11100001010000001011010001010001
00001110110001111000010000100001
11111100010110010101001001000110
00001110100111101001110110100010
00010001111011000110010110100011
00010100111001010001001111111000
00000000101100011111011011000110
11111010111101111101110001111100
00000001010100000110111000011010
00100110100111111000011101110111
11100111000010011011110000001010
11101101001011101011110001010010
00011100000100010100000000010101
11110000011011000000101011011101
00001011100100000100111110001111
00010010010010100010111001100000
00000100111100001100000100001011
00100001110010101000101100011011
11011100111101101111111000100011
00100001000011110100011101011001
00011110000000101000010001000000
00000101111010011100100000100001
11110000110110000101011111000111
00000101111101111001011000010011
11101110101111101001011101001110
11111011011011111101010100000110
11111101100110000100101101100011
11110000011111111000001010010101
00001011001000001011010010000001
00010110100111001110100010001001
00000111111111110001101101101011
11111010101001010010100011100010
11111110100000100001011000100110
00001011001011010101110011001100
00011001111111001100011011010000
00001011000101011010001000011101
11111010001100111101001011110101
11101111010101101101000001101110
11100011110000100010011001101111
00000011100101001001101101110110
00100101011011001100010111101100
00000101111011100000100001000000
11110001011100100000011000001110
11111000000101110101001100100001
11010100101001101100111110001111
11001110110111001001000111100101
11101011101011011010010111110110
00001000000010100110001001011011
11100010111100110100010111111110
00000011010011011010101000001110
00100000111001010011101011000001
11111011100101101001100101000110
11010100101010111111011000000110
00000110010110111111011100010110
11111110011101110010100100001010
11111111100101011000101011100101
00000101010101100010110001101011
11111111100111101011101110111101
11100011011011110010001110110111
11010000111000101111101111001010
11100001110100111100111111101001
00010100111000100100011111001000
00010100011111010110001000110010
11100100001001111000011110000110
11110001100101110111110010011110
11111110111101001001010011010011
11110100101010110011001111001000
11101011111110000100101010010001
00000101001011111101011110101111
00001011001010000101100111110001
11011100010110111010110001001101
00000011000111010101100010101000
00000010011111011011001111000011
00010001000111011010101010101111
11111100001100000000001000001000
00001000101111101110011000101010
00110011010010100000110000111010
11101000001001101101100111001110
11111010010011011001111111001010
00001111100100011010000001000111
11110000110010111011111101110001
00110001010101001111110000011100
11101100111100011010001111110010
00010111100100101010110111101110
11100010111011101100000000010000
00001000010000110000110000000011
00000010111110101101100010000000
11111000010100011000100000011010
11110011100110011000011010000010
00000100111001111100011001000011
11101001101010001010011101101111
11110101111010010111000010101110
00000101111100001111011000101101
00100111110001110011010111100000
00001010000010000100000001001101
11110111000111001000111000100000
11110111011101110001011011000110
11111111111010100111100001100000
00001101111000100111000100100011
00010001111111101001100101000111
11111101010111100001111010010000
00001010011011010000001101011100
11110001001100100111110011010010
11110010000101110111100010000001
00011101001100100100000001000001
00010110001100001100101110110000
11110111001010010111101110101001
11110110001111110100111101101101
11101101100111000001110101110010
11110001101010101000000101100111
11100111100011001000010110001101
00000001110110100000100100100111
11101001110110100010010101001110
00001011001100001111110011010001
00101110000001001010111111000111
11110010010110010011111101101101
11001101110000100011101010001000
00000001000100110001010010100110
00001010111100111101100111000110
11110000110011010000111011001001
00000010010111001000000001111000
11110111101001101100011111110111
11100100110101001010000000001111
11100111000000011111010101011101
11011010101011110100000001010111
11111101101001111000010100111100
11110011101110111100100100100100
00000010100011100000101101101001
00001011010101011100110000100110
00000110000110001011000001001101
11101011110111100101001100011101
11110010010000110010010000101111
11110111011101010000100001111011
00100110001000111011001111100100
11111100001111100111001100001101
11111001101000010111000001000000
11111111010010000011010100011000
00110010101001111000100010100001
11110010111111100010101000001010
11110111011011000011001011110100
00101000000001010000011111011000
11110101010101010011101010010000
11111100001101110101111110111010
00001010000101110110101101111001
11101100110111010110111011001011
00101011110110110100011001110011
11111000010010100110110110111000
00010100000000010100001100001000
00001010010101011011100101011101
11101100101110000011011000010011
11111000110111101110100011010010
11111001000111011110001110111110
11101110101011101011000100010111
11110011111111110010001110110111
00000111111111100110000010011001
00000010100011011001000000100000
00100111100111010101011101101101
00000101111011101000010011101110
00010110110001011001111000010010
00000000011000000111001101101010
11110010111101000101000000010010
11111111011111011010111101111000
00101000101101100101100101101001
00010000001101011011110001100100
00000101110000011110001010110101
00010101010111110011100101110100
11100010000001100000111111011001
00000010101011000100111101011101
00100001001100111110010010001010
00001101101001011100000000101110
11110101111011010011011100010011
11100110101011011100110010100100
11101011101111110101111100111010
11100011111111010011100110100010
11101110110111000001010101100111
11111110011101001111001110111010
11101111110001111010111111001111
11110111101111001001011000011100
00010011101001100110100110011010
11101110100110100001000011101101
11100000111000011100101100100001
00010011001101110101010010100101
11110000010000111101100101011000
11111000011101000101011111001011
00000011000001011100010000110110
11101100101000111100110001101100
11011011001111100000001111111010
11011111011001101000001101001101
11011001001001011000111000101110
00011101101100000001000000010011
00000101001000000101001100011101
11101000010111001010011111100110
00000110000010110001100010110000
11101100110000011111001000011111
11111111001001000000010101011101
11101000110000001011001000111110
00011010000111110110001011111000
00001111001000011100110001010111
11110101101100001101000000100001
00001000101000010101000111101000
00001011000010100011100111100101
00000010110110101111010100011001
00000001010100011111001010111000
00010010110110010001001000111011
00011110010011010001101001010100
11101111001010101001101100101000
00000111100101101010110010000101
11111000000111011100010111100101
11110100111100111000011101100100
00110000111101000111101100010100
11110101001101110111010110101110
00011101000111011010001100111111
00010101111101011000101100111001
11111100000010111010111001111010
11101100010001100010011001100111
00001010100100001100000110101111
00001001010000000101110111100111
00000111011001101111111100000010
00001100111100100101111011011001
11110011111101110001001011011011
00001100000011010010110000001000
00001110001011000011111101100011
00001111101100110001110010011111
11111011101111000110000111101010
11111011001110111000110011001010
00011110001101001001101000101110
00111010101010010000010111100001
00001100011001001011100011110101
11111000111100010010100110101010
11111010010110111011110001100110
11011111100111010000111111010101
11110100001111111000111010100110
00111011000100011101001111100001
00011001101001111010110010111111
11101011010001001100100110011111
00000111111101111111010100000000
11101101101000100000011101101100
11100001101100110101111100100001
00001001011011000011010111100011
11100111001110000010101111010000
11100000001110001111100000100010
11100011011010010101100000101011
00011100000001111110011001110010
11011110110111011111111011010100
11001101111101101111001001000100
00010100100010000000001001001111
00000100110010110111111001011001
11101101111010101000001010000001
11111000101010011001010111110010
00000101110110000101101001011010
11100101110000101010001100111000
00001001101100001111000110000100
11101000100001000110001111001111
00100011011110011001110110001001
00010111101010010111100100111100
11111111010101000011110100110110
11111011110100010111111101011001
00001000100101011100101111101010
11110000011101010010101000101010
11100001111001001101111010010011
00000100101100111101111001011100
00010101101111010101110001110100
00000111101011000000111010001100
11100011111101110101111111000001
00000101011000100011011111011110
00100111000101101111111001000111
11100111110001000011101000111010
00000111011001011000100110101110
00010101100100111100111000100111
11011010001011111101010001111111
11100101010000000111001110001000
00000011100111110110111100110011
00010110000100111001011111001000
00001000010111010110111101001000
11110011111001000111110111110010
00001000101000101010010010100000
00011101000000101000110110011011
11111011101010000111001011000101
11101100000011001100110011100111
11111001111001100001010011010001
00000010101010011011000001011100
11111110110111110001110110101011
11110111010111000011101010000111
00001000110101011011001011100100
00001110000011000101100101100111
11111101011101100000111111110011
11110110101110010010010101100111
11111011111011001100100000100100
00000111111010111111010001111100
11111001110110111101010100010111
11110101001100111101011101110110
00000101110101010011100001010011
00000010000001110010100011100100
00000100011001101110011110001110
00000110100110111010110000111100
00010011011101111001110001011101
11111011110010111111011100100101
11111000100110100001110011101011
11111010001100000111011101111101
00001100100000110101011101001111
00001000000001101101000001101111
00000100000111100000111110111010
00000110001011011110010011111101
11111001010010101000000011110000
11111100101101111011101000101001
00000001111101101000000110000001
00000101101010111101100111111011
11111101001110111011101001111010
00000010110101011101100100000011
11110011010000100111011100000001
11110010101111011101100100010001
00001110111001001110011000111011
11111110110101011110101011011011
00001110011011111000110010001110
00001101100111001001111110111000
11111101110011100010011001011011
00001011111001110110010011010001
00000000111110101111000101011110
11111111111001000001101100001000
00001011100001001110010011111110
11111100111110000000110110100110
11110001100010101110110110000110
00000111010000010100010000100110
00010010100001110101011110001010
00010010001011011111001011011110
11111111111110010100100000010100
11111101001001001111010110010100
00000010000100001100010110010111
11111111111011100111100100100101
11111101011001001110111100101111
11111001000100100110000000110010
11111010100010100111011001000110
11111100111101100000111111011101
11111101111101010101100110000101
11111101111011010011101101111000
00001000000100000110110101001100
00000110001011101010000110100010
11110110100111101001001100101001
00000010010111000101011101101010
11111000100010100001110011100111
11110100111011000011011010100111
00001011000001100101110011110011
11111011101100011000111001000111
00000000101000001110000011100001
11110111111100110111101001011010
00000001001101001001111111010101
00001001001111110011111100101010
11111100000111010000101110110001
11111110001111100111110111100111
11111101011110111011001100001100
11111010110111000011000010110011
00000001100001001101111111010110
11111010010001000001001110110001
11111100011011001100111011000010
00000001010100100111100011000101
11111101001111100101000011100100
00000100001111100111010010010010
11111101110010011011111110000000
11111100111011100111010000100111
00010010000100110000010000011000
11111010000111100100101101110010
00000111111000011101010110011111
00000101010111100011111100110111
11111101000000110011100110000001
11111011100110000000000010111011
00000101010000010000111011001011
00001100101110010110010001111101
00000001010100010001100111111100
00000111100011100010100011010100
00000110101111010101000111101001
11111110010110110001101011101001
00000110100100000101001011111010
11111100101101111010110001101101
00000101011001001110001000100000
00000101011100100000011111101001
00000001101011011001011011110111
00000101101000001110001100001010
00001010011101110010001110110001
00000111010100010010000101100101
00010111100111101110110010001100
00000000011001100101111000011001
11110101111100000110100111011100
11111110000100100110010111101110
11111110101000111011100101101000
00000110011100100001111011010001
11110100100010001100000011111101
00000001001000010011000000001111
00010001001110100000110001110001
00010101001000100001010111011101
00000000001001111111111111111011
11111010111101100100110100101001
00001010110011010010110001100111
00001001010100101110000010011010
00000001000010000010100100001011
11111100110011000111000110010011
11101111010011001001000011010000
11110000011001011101010101100100
11111110011100010010101110010010
11111001000000111011110101011010
11111100001111001101111000001100
11110101010101011101111010110100
11111011010110111110000111111101
00000010110111011110011010110010
11111110010001010011011001100000
11111110010111110110010110001000
00000000000101011100001100101000
00000010101010110111011010011011
00000001011101110100110110001111
00000111000000110100011101110101
00000011000111111111101110001010
00000011010100010111000001010111
00000101110100110011011100110111
11111110011010011101000000000011
11101110100111000111101101100000
11111010100000011110001110010001
11110100110011010111100000100010
11111001110011101001101010110010
11111000000001011010001001111010
00011010011001000101100101011010
00001001001101111111001010101001
00000010000001001110110010111001
00001000010011111001110100101110
11110100011011100101100000110001
00010011011000111010100010111000
11111010001010000100101110111110
11111110100110010110100100111001
11111000000101011010101011111100
11111100000110010100110110011011
11111001100110111100011010010000
11111011000101001010011000000011
00000000011010111101111010100000
00000111001111111010111011010111
00000010111010001011100001011101
11111100110101000000011101001100
00000000011101010011100010111011
00000101111100011010010010110111
11111101000001001001010000100011
00000111010011110011010000101101
00000011110101111100101000100101
11111001011001011000010111011001
00000011100111010101011111010011
00010100100000111111010101001101
00000010000100101011101100101001
00010111001100100001010100000010
00000101010011100100101000010111
11111101000100100111001100111100
00000000000101000100011100100000
00000010100110101100100101001010
00000010101001001000101011000110
11110100001110100101100101010000
00000110111101000100010010110001
00000001101000000001001011000001
00010001010010010101101101001100
11111011000011001001001001011111
11110010101000111011010000110001
00000011111100110111001100001001
11111111011111001101001111000100
11111001100011111011101011101001
00000000000010010010011110100001
11111110101011011001101010100010
00000010010101111000111110000011
11111011011110100100110010101110
11111110011101110111100100001111
11111101011110100111101001110011
11110001011000011011011010111110
11111001000000110011011011101000
00001100001011110001011001100001
11110111001101110011110100111100
11111011010010111000010000010000
11110111001110011100001010011101
11111000110100111001001110110001
00000011101010101111000111010110
11111000000000110111011001100000
11111100110100000111011001110000
00000011010011101111100000110001
00000011111101100000110001011001
00000000011101011001011110000101
11110111111110110000101111011101
11111000010011100011111011010110
11111010010110110101000011010100
00000101000110010010110011110011
11111011100011111001000010100110
11111010001110100011001010101001
11111110001110110010010110011000
11111111001001100100000100101110
00001111011000100101110111100001
00000001001000101100111000011011
00010010111011011110101101110001
00000101001010100011110011011111
11111010100100000000100001010011
11111000110011101001111010110101
00000100110011101011110011101001
11111111000011100000111100111110
00000110010110100110010101111001
00000101010100011010000110100101
11111101000101000010101110010100
11110101010111100001100101011100
11111100000010011100001000111100
11111001111001101111111111011011
11111101011000000111101011001010
00001010100100000011010101001001
11111111110011000111101000111000
11111000101111001000101101100010
00000001101110011101011101100111
00000011000010101000010001111000
11111111110100001011110100110110
00000010001110010110111011010011
00001010101010111011101010001001
00001011110100110001111011011110
00000011100010010110010101010010
00000100100101100001111110101110
00000010001011111000011000001011
11110101110101101111001101101101
00000010001100111100111111101111
00000001110110101111100111010110
00010110111000100000000101111001
00011101000100111001001011010100
00000010000011011000010111111111
00001001110011111001100111111011
00001100110001101000000101000000
00000011010010101111110010111100
11111000000011100101100000100110
11111011001011011010110110100001
11110101001100100111011100110010
11111101100010100110001011101100
11111101110000111111101010010001
11111111001000101111000110001111
00000001011011100111000111000001
00000000000111111000010000010110
11111101011000000011001011010110
00001111011111001100101110011010
11111111001010110011010101010011
00001011110000010010010111100100
00000010111101011110100001011100
11111111101111011110001101101111
11111101010110100101011010100110
00010000111010010110001000001000
00000101010010101100111001111001
00000110111001101000000001111111
11110110111000110101101001101011
00001010001110010011001100100000
11110011001101010101101100011110
11110011100001101010101000011111
11111111011111000001001111111001
00001000000010001110110111010100
11111100011001100011110001011101
00001001000000001010111010001010
00000100101111101100000011101111
00000010100000101111011001011100
11111010101011010111110110001110
11111101001100010111110110101100
00010010010001110101101110000100
11111101000111110110010001100001
00000111110000001101110111100101
11110101110000101101101011111110
11111111101100110000110111111001
11111011101111000111100000011001
00000000110110110100000100111010
00000001010010001001001101100101
11111110010011100011000011000011
00001000110100010111101110010001
00000101000100101000101100101110
00000011111010111110110010101110
00010100001110000100010010110100
11111111101110110000101010000100
11111111101111111011111110100000
11111001001100101100000111110100
11111001110000000110111011100000
00001001001100001111111001011100
00001000010010000101110100111010
00000101000000010111010111011001
00000011111010110011010111010001
00001101001001101101101001000000
11111111100010100010010101000001
11111111101011011110001101010101
11111011100110001110101001100100
11111111100111110000000111001111
11111110010001110110011110110011
11111101110001101000001011101000
00000010100011011011001111100011
00100001011010111100111101001110
00001001011110100011000001011100
00000011100011110110111001001001
00000101000010101101110010010110
11111110011001010010100011010101
00000011110101110011110100010101
00000010101011110011111011000101
11111001011000111001111110100111
11111111100000011101000100101010
00000001100001111100110110100100
11110111001000101111101111100010
11110001001100110100111100000010
11110101011000001100101011111110
00000000101110011111010100110010
11111101101001010100100011110011
11111001010001110111010110011101
00010100101110111000010011101100
00000011010000110011110010011010
00000000010001000111101010001000
00001010001010000111110101000110
00001001011100111011000101110010
11110000000010101100010110100001
00000011000101110011110011101010
00001000010101001110010000111100
11111000011111000111010101010001
11110100000110111110101011010100
11110101110111011110101100010100
11111000111000000011010100011101
00000010010111110011001111110010
11111000011000001100111111111001
00001010111011101001100000001111
11111100010100111101100011001010
11110110101110100001110101111010
11111101100001010111110000010001
00000101001100000101011011010101
00010011111000100000001010000011
11111100000010100000001010111101
11111110010000010010010111110011
11110100111110100100110111011100
11111111101000111111001011010001
11111011101110100011110110110101
00000101011011111110111101000100
00000111011000111011010000100100
00000100110000110100101010010001
00001100000110101000101111101101
00000101001001010110000111010000
00000000111011000000100101000110
00001000001000110010001101100111
00000100001011100000010001110101
11110110000010100010100101111000
11111010111001100100111011111011
00000110000111101100110010000011
00000000101101111010011111001001
00000100010001101011010100100001
11111100101011100001001111101111
00000001000100110111110010000011
00001100001001110011101010001011
00000001101100001010010001011000
11110101100111100101100011100001
00000110101110010100010011110011
11111110010000101111010001101101
11111011111011000000101000001111
11101110101001101000001100100000
00001011011111010000111100101111
00010100100010010100111101000000
11111010001110000111000001110010
00000000101111001001000111011100
00010010010111101101001001100011
00000000110111111010110000001101
11110110100000001101110011110100
11111000010001001000011000100000
11110100011010110111010000000100
11111111011100110101100101111111
11111111100100111110000000110101
11111011001111001110010010001010
00000000000100100011100111011011
11111100100010100010010000010000
11111001111101011001110011001010
00010110100101110001100010001000
11111000111110000001001101111100
00000010110111011000001010101110
00000111100011101010000011110100
00001100010110110001100010101001
11110011110111111000110101111011
00000000100001101000010010011001
00000010100101010111010101101011
11110111110110010011100100111010
11111101001101001110110110111000
00000001110111100111011010000100
11110001010111011010001101011011
11110010010011111000111100100101
11111101011000001111001000011111
00000101010101110100000001111011
00000111110111101010000110000000
00000100101010000101001010100000
00000100110011100000100111100110
11111101100000111110100100101000
00000110100010111010011101110110
11111111100000010101001110001110
00010011111011001001110001011110
11111001011101110100101011111110
11111011000000011000010110101110
11111100100111111110000011010000
00000001110101101011101111000010
11111111100100001000110111001100
11111111101111101000010111000000
00001000001010111011111011001011
00000110010101100001000101101111
00001110101011110100011000011011
00000011011011000001101100110011
00000011110011010000011111001111
00000011011100111100111101011111
00001101101000100010000000010001
11111010011011101001000001000110
11111010100011010011110000010001
00000000001000001110101010011111
11111100011101011100000011110101
00000100110110011000101011111010
00001010001101000011110011001011
00000101011000001000111010111100
00001001011110101011101001110101
11111001000101111111100100101111
11110111111100010110101011010110
00000010010000010111110100110001
00000010001010101001010110001101
00001010001101011010100111011111
00000100010011001000000010010011
00011010100110110110010111100111
00000110011101011110011101001110
11111101001110011101100001111001
00000101110100000001001100001111
00010100000101111101111100000010
00000010101000011011110100110111
00000000001010111100111110000111
00000110110101001111001110011011
11101111100111100100011001010110
11111011110100010000011110100100
00000010010011111100001100100101
00000101110001001011111110011101
00000000111111110101011111111011
11110011010011000010100000010110
11111111001110000111101110010101
11111001110111011101001101110110
11111011110000100111011110001100
00000010010001010001011110010010
11110100010100101110111000000000
11111011110010000000101010110011
11111110111010101101010011101101
00000110010010111010010100110100
00000001000101000000111111110001
00001011001110000101111101100101
11111010111010001010000011010110
11110110101001100011001011110111
00000101000010010011100011111101
00000010111111101101000100001110
11111110001100110010100110000101
11111101111100001100001110011010
11111100010011010100001010101101
00010100111001110111010010010010
11111001100001100011011010000111
11110111000010001000110111001100
00000001011011100001011100000100
11110010010111010111010011000010
11101101101110000100011011111001
00001010010000111010011110001111
11111111101011010010101111111011
00001100100101111111100011011010
00000110110010100011111000010100
11111010001000111010000010010101
00001001100011000111100001011010
11110100111110110100011001110111
00000110010011101010000100100011
00010100011011110101000001000001
00001101010101111000100111000100
11101110110101001111011101110010
11111010110100101110011101110010
00000011110101010110011010001001
11111101010100010101010011000111
00000101101110111111111111010101
11101111001000110000111001110111
11110111110100000100001110010110
11100111111110010101110010100010
00000000010001110100111011110101
11111110110010010110100110000010
00000010011001110100111110011100
11110110010110000001110011100000
11111111111001111001011111000111
11111000110011010001100011010001
00000101110110010011111010101001
00000100010101001111100101110101
11110101100010010101110110100011
11110100001101011010000100100100
11101010110101001011110000010111
11111000011011011100101011110101
00001001011001111000011110111000
00000110100110011001000001111101
11111100001011101001101001110100
00000100011110100110110101100010
00000010011110010011011100101000
00001001001101111101010110010010
11111010101111111001011110011011
11111111000111100000111000100001
11111010110001101100010001111110
11111001011110100111111000111101
00000010010100000000000011110111
00000111100100101001001011001101
11111010111011001010111011000101
00000111110001101000010001011101
00000101101011100001011111100100
11110011011101100101010010001001
00000110000010110001011110001111
00000111100100011010001110000000
00000010000010001001101101010000
00000000110000010111001111101001
11110000110100111000010010111011
11111110111010011010010011010111
11111110110010011110100110101101
00001110011011010000000010110011
00000010010010011011011110111100
11110001110001011001010101001110
00001010111111010100000000010001
00001011100001011111010001011111
00001001111111001011101111010111
00000110011010100101101010010001
11110111111000011110001111101100
00000011100111011110001100001111
00001000100100111100110110100101
11110100001110001111010001011100
00001110010111001000001100111001
11110011101011001100010010110100
11111101000011101001010100011100
00011100101111011111101110111111
00000100100100110010101001100110
00000110010000101101011111011000
11101010001100000101110000011100
11110101000110000101001000000011
11111001111011111010010000011000
00000001010101001001110110111011
11111111010101111001000011001101
11110011110110101000100010111101
00000101110111111110101010101100
11110101001110101111000100010101
11111110110100111100110111010101
00000111010110100011100010111101
11111100010100001000101000111010
00000000010010000110001101110000
00001001001001001001010001110001
11101110101000001001100010111101
11111111011011001011111010010000
00001110010100011110100000001101
00000001010001110100010100111101
00001000000010111001011101001101
11110111010111011010010101101101
00010110011110101111001001000100
11110110110101100001000110011000
11110001011110100011001100101010
11101110110010011100100111011011
11110110010100101100111110101111
11111011010110110011011101100010
11110011000111011110001100011110
11111011101011110111010011000100
00000001001010001110101101110100
00000000000100110000000101011011
00001110110000001110001110010010
00011011011011000100111010001010
00001101001011101011111010100010
00000110000110011101000110011011
11111010001011110111000000100111
00010011000011001001101010011110
00000111100001101010111010100011
11111110111101110001011101001110
00001100100100100000011101000001
11111010011110110011010010000011
11111110010000111000100011111000
00000001000000110010000110000010
00001011011110001111011110111111
11110100010000011010111110101000
00000001110110101111011010001010
11110010011110101011100100111011
11111001111111110000111110001010
11110101001111010101111111111000
00010011101010010101000001011000
00000100000010101101100101101001
00001000011111101011100111011100
00000110011010110100110111000000
00001001000100101110111111110111
11101110110011100110001101001101
11110100101010000011101100111101
11111001101000010000100011010111
11110101101101110110001010110011
00000011101101101101101100110010
11100000001111110110110011111111
00001111111001101001110001110111
11111110110101001011101000000001
00001110100011111101011010111110
00011010010101111001100111101010
11111101010111011011101110010111
00010000010110001011000111101010
00000001110100110001001110001111
11111000011010010101100110001100
00000110101111110011100100010110
00001101110110010011001111011000
00000010111100101011011110100010
11110010100011001001111101011000
11111101100110100110000110111110
11111011110011000010100101101100
00000000110001101101011110111110
00001100001010101111100000001110
11111001000011000000011010110011
11100100010110000100110000011100
00001000011001000110111010000011
11110011010100100110010101010101
00000110011010000000111001100101
00000010111101101001110110001000
00000110010000011110100000000000
00000100000010101110011010100011
11110000101011001101110100110111
00010101000000010010100011010011
11111110001100111010000001111110
11111001101010010010100010110000
11101110001111100000110100100110
00000100010100000001011111001110
00000101000010010010111101000001
11111000011101000010010101010110
00000000011101100000001110111000
00000011110000011001001001010111
00000011001011010000000101010111
11111111111010011100001100100011
00000000110111100110000100001110
00000100111101101001000101111111
11111101001101010010110010010001
00000100000110001011100010111010
00010111100010011100011100110011
00000010011000011001101001010011
11110110111010000010010101010001
00001110001001010110111111100110
00000111111101100111000001011110
00001010111101100101110100100000
00000101010011100000111010101111
00000111000111000101111011110000
11111100110010111010000000000011
00000111110110111100010110110010
11111001111010110011100111111101
11110011111100111010000100101100
11110111111010100010010100010001
00001010011111100100000110100010
00000011000111010111011110001001
00000011110001001111000010100101
00000001011011111110111100010100
00001100101000110111001000111101
11111010000011110100010111110000
11110011111110100000100000000011
00000000110110111111100110110101
11101111111000010010011011100011
00000010001110010100000000111110
11101000100100101000100001010100
11111110010110001101111010010010
00000001011000001000100100001000
00001111111111001101110111011110
00001010010101111100100101111111
00000110110000111000011011101110
00000111110110011011001001011001
11110111101101101000011110110100
11111000010100100010000000001101
00001110010101011000111011110010
00001001111100101101001110011101
11111111001100110110110100111011
00000011011110010111100111011001
00000001101001111010100100100000
11111001000010110000110100001010
00000110011100111000000110001101
00001001010110011011000100100110
11111010111000000101110010010110
00000001100001110000011101101100
11111111000101001011000111111111
00000100001110100010010100110011
11111101110111001010101110110100
11111000110010001100110100101110
00000011010101011111011011001001
11111111011010111100010010101101
00000011110011001000001100001111
00000011000011111010000101111101
00000000101011000001110111101110
11101101011011101000101111110101
11101101000100000000110001000001
11111101110010000000000001100011
11111101111110100001010100110011
11101011101000000001100000100000
00000000011111000111000011111110
00010011101010010011010110001110
11111101000001010100011001110110
00000100001101011110011000011000
00000110101011110110000110101110
00000101101000100000101110110111
11111001011001101010010001101001
00001001101011111011010001100110
00001010011001101101100101011011
00000010111111100111010101111110
11110100111000010000101100111000
00010110111110111101101110000001
11111101100101011011110111110000
00000001110001111010011110010010
11111010111000110111001110010101
00000010101100001001111001100000
11101100101011000001111111101100
11110000101110010000010110101001
11111100001100010111001101010001
00000100010000000001111010110101
11110101111010011100101110010111
00010000111111101011010110011101
00000111001001110000101101000001
11110111110011100001111010101101
11111111101110101100000101100100
11111010110101101100110010001001
11110010100010000010011110111011
11111111000001000101000110010000
11111100110010110110011101100111
00000001000000111000001101110010
00000010111001110001001100010001
11101100000000100011101001101010
11111100101010010101101001011101
11110111100011101110111010000000
00001010110011100111110100000000
00001110001111011101101010100101
11111010110110110101010101100001
00001111101110001011111101011001
11111110100000111000011110000100
11111001110000110011001000101101
11111011001000001000001110101101
00000100111110101011000010000100
11101101010101000100010000101011
11101010101111100000001110001110
00000011011111011100100111110000
11111101111001110111100101111010
00001000001010000100110010111111
00000111011101110001100010110100
11110100010001011010001110000010
11110100011010011101110011000111
00000011100111000000101101001010
00001000110101110010110011010111
11111001111011000111000010111111
11111111111100111011101110010011
00000101100110010000111001000011
00001010010100101110001001110100
00000000010101000011110011000111
00001001110111110110001101010111
00000110000011101000000000000101
00000100010110011010100001110110
11100100101001011011000001110110
11111001111011101101110001101010
11111101001111001110001010000001
00000000011110110100010010010110
00000100110001011001101010100000
00000000010000110111011001001011
11110011110010101101101100011001
00001011001100001001000000101111
00000001111100011110100000101111
11111101010100100111001111001001
00001010000111001001001110010111
00001110111010001011110000010001
00001101101101001010100000010110
00000101111110000111101000110001
11111001110001010010100001000110
00010101100110110000011101100011
11101001001101001000010110011111
11111001010100100110111101011101
00000010100000001101010111101111
11110000010001111011110000110011
11111001000111111110010001011110
00001011011001010110010110000001
00000100010110001111100011010010
11110000101000110101010111001001
00000010100100100111010000111000
00000111111110100110010000110011
00000001101110000111101100011000
00000011111110010010010001101000
11111110011010110010011000110100
00001100111010010100001110011110
11110000101110110110011000111101
11111001111010011001000100110111
00000101111010000011100011110110
00000011001101110000001100001111
11111110100111010101101110001101
11110011011011110110001101110010
00000001100001001010100111111000
00000011100111011000101000010001
00010010000100110110011110110110
00001000111001100110010001011000
11111100111010110010000000011111
11111101100011100011011111110010
11111100111100000011110010111110
11111001110000100010000000011111
11111111101101100111000010010001
00000010110001000011100011111110
11111000010100101100001011101010
11111011110000010011001111100101
00001011011001101000000001010010
00000010111011010000110111101011
00000000111010101011010010101101
11111011011001001110100110010101
11111011101001010011100011100111
00001000111010101001011011010101
00000011101110000101101001101001
00001001101001110101000011101111
00000011111111011010100010011011
11111100101000000010001101001111
00001010100100001001001011011010
11111111111001010001010011111001
11111100001101101111100001011111
00010001101101110010101000101110
00010100111100110111010011110100
11110001110100000110101000011110
11101001011001111101011000110111
00001000011011110010001001101010
00000000010001110101110001011011
11101000110010101000101010100010
11111101111101001111101111001011
11111111111010010000111000010100
00000011000000001111110101010110
00000110111111110001111110110001
11110011101111010001010011000100
00000000111011110011011000011101
00001010100110110110110101001000
00000000101110011111111110011011
00001011011110110100010101111111
00000101001111111101001100110100
11110011010010011100100100101111
00001010111100000101110110100001
11111101010011111101100111101111
11111101011110001000100010000001
11101011010101001100001101101100
00000101100010110111001010000101
11110000010000000111100110000110
11111110110001001011010100110101
00000010110110110110101110010110
11111100111011000011111000100000
11110001011111001111011101010001
00010110100000110001100110001100
00000100001010010101111100001110
11111111110001001110011011010100
11111000001000110111000100101011
00000110101111000101100110101011
11111001101100110101001101011001
11101100100001111111101111000110
11111000000101110011110001000011
00000001010011011011010111111100
11111101000001001011001010001110
11101101111110100010000100100000
00001011000111000001110110000011
00000011010010111101110001001111
00000100101001000110011011110000
00000100110100001001110111000111
11111110000111110000000100011010
00000101010100100001101010001101
11110101001100000100011111011110
00000010101011011110001110100100
00000100111111010100110011101010
11111111110101011011011101011100
11110000010001101101100001000100
11110001001110010010000111011111
00000001011100100001011111001000
00000101010000001011000101011111
00001010001111010100000011101110
11111011010111101110111001110100
00000100000000100110001011011010
11111100110111110100000000001001
00000001011000000100001010010000
00000111001110100110111000101000
11111000101101011110110111001111
00001000101100101111101010000101
00001110110000110100001111110110
00000000111101001100100110010011
11111010110011010000011101100000
11111111010111001111011000001011
00000001010010000001011110011000
11101111100000001101010100101101
11110110110000001100010100110001
11111010011011001100100001101011
11110110001011111100011001010010
11101101101001000001111101101000
00000000100110101101010000110000
11110101111100010001110111101101
11110010111001110011001000010100
00010001101010010101100100011011
11111111101001101100101001010011
00000000010101001001100111110001
11111010110101101010001110111111
00001010111000111100010110110100
00010010000000001101100001110111
00000101111100011011110010110111
11110111110010010011011111101000
00001001111100110001011111001011
11111110110011001000111111001000
00001111011111001100110000000000
00000001011010111110001101110111
00000110111001100001110010111110
11111100001000111110010000000110
11111101001100110001100000010110
11111101110001010001101101100001
11110010011001001000001000001001
11110000000010011001000010000011
00000000111101100100110011001011
00001010011110100101110010000110
00000110111010010010111110001001
11101110110010010011001110001011
00001110111100111000000001101110
11111111011101111011111101101001
11111001011100001001000010011010
00000001100010101001101111101111
11110101001101100001110100111011
00000000010010101011111011100111
11110101100101001100010100101101
11111110001011010101001101101010
00001100011001100110000010110011
00000011001001011001100010100111
11100011001000101000000001011011
11110111010110010010100000110001
11110001100001001011101110001010
00000001101111010010101001101100
00000011010101010001010101000111
11110000011000010110111011011110
11101010101111101010100110000101
00001011001011111010100010111001
00000011101110110100111101111010
11111000110010001110111100001101
00010001001110000010001101111010
00001000110011110001011100110001
11111111100000001000101100101110
00000110001100000111100110001011
00000100011010010101100110001111
11100110101100001000011001000111
00000011000010111101011111111011
11101001111110101100000100100010
00001011111110011111100110001011
00000000110010011000000111101110
11111011101000000110111010000011
11111111010101100100001101110010
00001110010100110011110001110011
00000010100001010101001110000110
11101111011101010101011001100001
11111111011011111111100010000011
00000101011001011000110000010000
11111000000001101111111000010101
11110101101101000101010001010110
00000010001110111000000111100101
11111100101010110001111111110111
00000101111111010110000000111011
00000000111101011010010101011000
00000101001100111110101001101000
11111110110000111001011000111000
00000100111111111101110101110111
11111100010001010001010101011110
11111110100111000010011111011001
00000101010100001110101100110000
00000000010010111000011111011000
11111110111000101000100101011010
00001101010001111110011011011110
11111101001110100010000110001111
00000000110010011111110001100000
00000001101011101111001100110000
00001010010001100011101010101111
11111111000010101110111101111011
11111101111001101101001100001100
00000100111100001101100100101000
11111111000011101110010110100100
11110010101010111011101101011001
00000000011000110110000010111101
00001000001101111000100011010111
00000001000110001100111000001001
11111000111011110110100110101100
11110111100100111101010011011100
11111101010001101010100000100011
00000000001101111110001110110111
00000110111001100000011011110101
11110101001000100101100001001110
11101010111000001001111100011010
11111010100001110000000000101011
11111001000101100011110000010101
11111000000011111000001100000011
11101100100111001101001001110010
00000000000100101010001001110101
11110011001001110010010000111000
00000110111111101011101000111001
00010001011110000111110111000100
11111001000110111011001010100101
11111001010110110001111001101011
00000011101001011101111001010110
11111111110000000110111000111111
00000001111100101100111011000011
11111100110000110100111111010111
11110111111111010100110001000100
11110011101100000110100101100011
11111101111000000001101101011110
11110001111001111100011101100010
11101110011100101101000011001011
11101100110010010010111000010110
11110110101100011001101010001001
11111111111010000001111000101100
11111100111011100100111011001000
11111010100000011110000010000010
00000101111100000010110011100001
11111011001000101000111100101001
11111101010100011111001101011000
11110100110100110011101110010100
11101110101110100001101010110101
00000111011110011101010110101011
00001011100100101001100100010100
11111100011001001101100000100100
11111000000010110000100000111110
00000000010100010100110110100111
00000001111010100101001011001001
00001110001010010000000011001010
00000100101101000001011001010100
11110010000010100110000000101101
00000100111110101110000110000101
00001111110001100001110100001101
11110111101101001011001001100000
00000000000011000001000010100101
00000000101100000010011010110011
11110101111111010110001001111110
00001000101100110011010011100101
00001010100000101110011101011110
00000101001101101010011001001010
11110110010111101011011110000111
11111101101000011101100011100110
11111011010000011111000110011000
00000101011101100100110001111111
11111100000111011101010010011011
00010000111000001110111111000000
00000100000111001111001101000111
11111110101001011111011011010101
00001110011010000010100110110100
00000110001001100100010011011011
11111110100101001001111101111110
11100100011001000010101111100001
11111011010110100100101111111111
00001000001010110011101001001011
11111101000101100001110101110101
00001101001000011001010010010001
11111100001011011100100001101100
11111001010100110001110001001100
11111011111011010100101111011101
00000001111001101100010101010001
11101010001001111100010010110000
00001100110101111100000101000110
11110001000100010111010000110010
00000001101110111110100000110110
00000001000011111100000001011111
11110110010100101110111010110000
11110000011001010001011011111101
00000000011101000001000101110001
11111101000001111100010000100011
00001000110000111101001000011100
11110111111110010010011111100010
11110101010111000001100011111110
11111001000101011101000110101000
00000111101011000010110000100010
11111111011110000101111101001000
11101101010011001010000011011000
11101010000110111101110101111110
11110110100000110100001000010100
11111111011000010001100110101101
11111011011110010100101010110010
11110101010001111001111111101011
00000011010010101110110011001111
00000001000011111101110011011010
11110010100010100010101001100000
00000011110011111111110100100100
11110100010001010110111110111000
00000000101011001100100110111111
00010000000101011010110110101011
00000100011001110100110011010100
11111101110101101001110100001111
00001001010111010000010111100000
00000001011100000111111010111110
00000111100100000100011101111001
11101111101011111001010110110010
11111111000100100000000111010100
00000100001000000110010100000000
11111001011111010001100011100110
00000000000110110110110101110000
00001100100110000110011011111010
11110100100011100010000100010100
00000010010001110011110101001011
11111111010100010111000110100100
00001010110111111101111111111001
11111010101100000010101001110001
11110110101101110100010010011100
00001101000010101010101001001011
11111011000100001110111000101000
00000001101100001110011011000001
00000011111101010000011010010000
00000010010110110000110101110100
00000001101001111010101111100110
00000011010111101100100001001110
00000000000110101111101110001011
11111000000001001011001111011100
11111011011110100010000100001001
00000010110010111011101011010101
00000100000011100000010100111001
00000101011010100010011010010110
11111001011111001011000011101011
11111011101110010101110111010011
11111101010101010100011110110101
11111101101001001100101101100110
00000111110111111100100110100011
00000000111100100010011111100011
11110011011101110111100011111111
11111000101100110010001001110100
11110100011111101100100000100000
11111101010000010011111011100101
00000101000001011101100010111011
11111100100000000010001001011011
11111000000101110100001110000111
00001101010101010010111110001101
00000010111110011101001111100001
11110011111110011110010101100011
11111011001011110110000010001010
11111111100110101110000101001111
11110010001000110000100000000100
11111011011011010100111011110101
11111111011001110111111011011100
11111111001100111010100111001010
11101111010011001101001010001110
11110001110010010010000010000010
00000011011101000000011011010100
11110000011110011101001101001110
11110011110000100010000001110101
00010011001101110001011000001111
11111011000000100001001011001011
11111001110101110100100011011111
11110100101111101011110010110010
11100111011110101101001011100011
11111110101100100100011001000010
11110101111111101000001101100011
00000011011001000101001011101111
11111100000100010100011110111111
11111000011100010001010000001001
00000100111010101101000001101000
00001001101100011111000000011011
11111011100001011110110111101100
11110111001001100000111100101011
00000101111110101111000100110000
11111001000001001000000000011000
11111000111101011010110011100110
11111111101000110000000000111011
11110011111010001000111100111000
11101100001110110011101010101100
11101110010001101111110111100010
00000000001010011010111000110000
00000010111010011000101110000001
11111010010000001010001100100101
11110111011101000000000000000000
00000001011101110111001001101011
11111101011000111110100011000111
00000101101000110001110110110001
11111101101010001111001101001001
00000010110001000000000000000001
00010011101001101000101101100000
00000101111100110110101011100101
11110110010110010000110001110100
00001101101001010001010100111100
11111001100101001000111111110110
11110111110011110100001101010110
00000001010010000001100001110111
00000110100011010010100010100100
00000100110111000011111011111011
11110000010001001100011110010111
00000111100101110001000111111110
11111101101101010011101011100000
00000001001100000010010011110101
11111011100100010110011111110100
00001100110011011100010000011110
11110000100100010101100011100110
11111111110000100001011111000110
00000001101011010101011111101001
11111011000000010001100011111001
11110101001110010110000011001110
00001001011101010111001101100011
11111001100010111000100011110101
11111110100110011011101010101011
00000010111000101001100110101110
00000100011010000111011100001000
00001000001100100111100011011101
11110101111101000111010001100010
11111011001111100110011000001111
11110111011101110011000001010000
11110110110001110000000111100111
11110100101010010011110001010110
00000111011001101010001011100000
00000010000101011111000011101011
11111011111001000101100101100000
00000011010011101111000000001011
11110110110101110111011110000101
11111100100100000000010000010001
11110101111100111101110000110111
11101011000001101010010110011010
11110111101010000110111010001101
11111000010100010010001110001001
11111000010001000011011000001010
11111100111000010111011011011100
11110100111100001011000001110011
00000010111001000001110110111000
11111011101000110110010110000000
11111101101000000000111011100110
11111111101010100101011011110111
00000001100100010000100100110010
00000111011000000011100010010011
11111100010000010111000101011001
11110001011101001111110010011000
00000011001011010000101111001010
11110111011100000110011000101110
11111011101001101010101001100011
00000010000111001011011010001100
11111010010001110110111101100010
00000000010000001000111111010010
11110111111000010011000101100001
00001010001010011000100101010010
11110010001101111101011110011001
11111100101010001011100011110001
00001010110111011101011101000101
00000111110100101001011000100111
00001011001100000010110011100000
00000100011101100001010000110011
00000000101101010110011110010010
00000110101100100100000000111101
11111011010011001100100101111101
00001110000011000110001011111110
00000011011001101010011110010101
11111101010111110010000101000110
11110011010111100110001101010011
11110110010001100111100001001000
00001000000110010001000011010101
11111000111011010011010000001111
11111001001101011001110010000011
11110110111011110101000111000111
00001010101011100010101110000011
11110011101000110100100111111000
11111011011011101000000000100100
00000011101100111100000100101100
11100110100110101101011110110000
11101111111101000100100101000010
00001100001010101000100001110001
11110110010101011010101001010111
11101111100110100100000110110001
00001001100101011000010111001101
00000111101001100010101001111100
11111000100010011101010010010110
00000011001000000100011101100001
11110011100000000111011010100010
11111100001000000011010111010101
11111000011010101011111001110111
11101000111111110010011101000011
00000110101011111100101100101011
00000110010110011100011101000100
11110110101111011011110010110111
00000100111111000100011100001000
11111000101111011000100110000001
00000111101110010001101100110010
11111111101111000010011011100100
11110011001010100000110011111011
11110111001111000000110111101010
00000010001001110000101010111111
11111101000011110101001001100010
00000000000011110100111010001111
00010010000110110110011101011011
00000110011101101100010111101001
00001011000000101010011100111011
11111110101101011001001110001110
11111110111100110001100001101110
11111011001010100110001101001110
00000100101101110010101111001000
11111010101010001011001110001111
00000011001100000101101000100100
11101110111111100000001001101110
11111001100011100001100010100100
11111101101111110111010110000100
11110110000011111110010111000111
00000000011110111111110000011001
00010110110100010101010111110011
00001001011001001011110111100001
00000011100010100000000100110111
00001000100011001000011111000000
00010001110110010101110110111001
00001001011001000110001111000011
11111001110100110111011000100111
00010101011111100010110101010111
00000101101100010010111010100010
00000100001110101011001000100100
11101011000001110101011110111110
00000110111001101000011011001101
00001101001110111011100010011000
00001001000111101000111000111001
11111000100001010100111001101010
00000101001000011100000011011100
11101011011101110000001101010101
00000001010010110001010101001101
00000100111101101111000010000111
11110110111110000001011000100110
00000000000101100111001011101110
00000011000000010010011101010001
11111110100000111111011011100000
00000001011100001010101110001010
11110001001101100111110111111111
11101101011000100101001000000110
11111101001010111111100001011010
00001110110000011010100011000010
00001001110000101110001111111000
11101010000101000111010000001000
11111011100111100111010111111000
00001001100010110110100010101110
00000111100001001010000001000000
00000100110001100010100101001011
11111111001001010111101000001000
11110001010100010001110101110010
11110011001101111110011111010111
11111111001111111100000111001110
00000000100111000011101100000010
11111100010000100111110110011011
11110110010111011010001001101100
11111110100010001011010010100011
11110010000100100110000100110100
11111100101000101110111000110100
11101110110010111101100001010110
11111110000011011011001110110100
00001001111010101101101010011000
00000001101010000110001010101011
11110100110110010010000010101001
11111110100111101110111101001011
00001111101101101011010110100101
00000100001000010000011100111001
11111111111110110010100101101111
00001100010001001010000001110101
00000010010110010111110000101011
11111110000011001000011011001010
11110110111111110111000100000111
00000111010100110110011100011000
11111011010100001110000001001000
00010100101111101111100000101110
00000100110111111010111001001110
00000110101010110101000100000011
00000011100011010010001111110101
00000001000111000101001110011000
11111010011010111101011101111010
11111000110011010101111011100000
00000011110110000010111101100110
00000101111100100111110001101100
00000101001001100001011011000101
00000001101011100001100101111100
11111110101010111000100011110100
00000011111111111110000100101100
00000010111101011100001001000010
00001000110110100000100010100001
00000000010101001111000100010011
11111100001111110101000100010011
00000011111000101001010100011010
00000101101000111110110110001000
00000011001001001100110110101101
00000001000010100000010101011010
11111000011100110110001100001100
00000000010000100000001100111001
11111111111011000011101001111000
11110100110010011110100110100001
11111011100001010011100100100001
11111111010000010111111011000010
11111000001010000101111100101111
11111101100000000000000011010011
00000010010010000100100001101111
11111111010001101101100111101111
00000101001110001000111001100011
11111010000011010011010101100100
00001001011101111001010001111010
11111010110000101111011101000011
00001101001101101110001010101001
00001100110111111010110101001110
11110010001010111100010100010111
00000100100101001010111001001000
11110111111101011110001000011001
11111110000101000111011100110111
11111101011100011001100011100111
11111110001110100101001110101010
11111010111000000110011101111000
11111100100011111010101100001111
11101111111001110010000011101010
11111111000111100100101011011101
00001001011111010000100010100101
11110110101110110101001010000001
11110111111101011100111011011000
11101110001001010101100001111101
00000011101011011110110111110111
00000101011111101100000010011110
00000000011001001000111110111110
00000010100100011111010011111011
00000100100001000100100100101010
00000101011010000111000000001001
11111100000101000111100111000001
00001000100111001100100100001111
00001001110100101010011111111111
00000100001010001110001101110010
11111001111110010000110010001110
11101100010011100101100000011011
00001000011000011000010011111101
00000000011001000000101010010110
00001000010010001111001110001010
00000000011001101111011100110001
11111010110111111011101000100000
11111101001010111000000100101101
11110000010000111011001100011100
00000001100111000100000100010101
11111100111101101111110110100100
00000000111011000101110100001111
00000011001010001000110010010011
00001000010001111001100011011001
00000101001111010100100111111111
00001001010111010101111110000111
00000011011010111100111110001010
11111110010101111001101001111111
00000101000010000111000111100110
11111001000101000101001110000111
00000010000010110011101000001011
00000011001011100010110101110001
11110101110110111110100001101111
00001001101101111001010010111111
00000001011101101100110110110111
00000010101100110010011101100111
00001010000101000110000010001100
00000000111111101001111111111011
11110100101001110101000011100011
00000011001111010000111010100001
11110110101010001000111010000111
11110001000011000111110101010011
11110001110011110110100110011000
11111101101001110111011111001111
11110100111100111011011110111010
11111101110100011100000010101010
00000001000010001111001001110101
11111001111000001011010000000100
00001000011011110010001001000110
00000000100001101110001000110000
00000000001001101000110101110011
11111001011010100100010110010110
11111001001010111000110101011110
11110110000001110011011100100101
11110110100110110011010000011011
00001110001100100101101000010101
00000110011011010011011100011001
00000111101111001101001101000000
11111100010101110111011001001111
11110010110111010110000001001001
00000011110010000011100100010101
00001110111101100110000110100011
11111001110001000010001010011101
11111010110100011111001101010111
00000100000000000010001101001110
00000010000000111111100101100000
11111100011010110001001010011100
11111100010011000100001010001111
11111000111010111010001111010100
00000110000101111110100100001000
11111111101101010100110011011011
11111011010101111001010011011010
00000011011100001100101111101001
00000011000110100011100010111010
11111001000011101011010110011010
00001010101001010001110010110010
00000010000010001100100110101101
11110101000011110110111010001000
11111111101100101111000001010110
11111111111000111100110111010010
11110010000100111101000110000101
11101111001100010101000000011000
11110111100111010011001111000010
00000011100000001001000111000000
11111100111101011101100110001101
00000010110100110111011000011001
11111110101011101010011100111001
11111011001001010111000010101011
00001001001100101111000011111110
00001000100110110000010100100100
11111010000101001001001110101011
11111010111011010011000011001111
00001010100001110110001010101110
11111101111001110111110100110111
11111111010101001111110110011000
11110111001110101111011110101110
11111100000010100111101101100101
00000100011110100011001110110000
00000010100010001101110011111010
00000011101011100001111101010110
00001100111000111001000000001101
11111001101111010000010000100010
11111111100101011000100100110110
11111111100000101000000110111111
00000110110001010001101011101101
11111000101110011111111000110110
11110100111011000001011101001010
11111001100100011011001111100110
00001010000100100000101100110010
11110111110010100100000000001010
00001010010100000110001101000111
11111101000101001110001010100101
11111110111110011111000100110000
00000100110000100100110101110011
00001000111011011011010010011101
11110100000100011110110011010111
11110011101100000110011001100000
00000101111000010111010110101001
11110010011010010010000001110011
11110100010010000101100101011100
00000110011110111111111101010100
11111110010101011001001000001010
00000001101000011001001001101100
00000111001101011000000100101000
11111101100101010101011000000111
00000100011100101011010010100000
11111111111011101011010111101001
00000000010101011010010000011110
00000110100001000011011111000111
00000011010010101010100101111101
11111000011001101001001011100100
00000100100010111011010101100001
11111110110111000000110010000101
11110111100100101110100110111000
11110110111100100111000011010010
00010010110110001001100101110111
00000100101001111110110100001010
00000001111100110001011111001000
00001110010010000011100101001101
00000000011100000101011110000001
11111100010110100101000100001101
11111100101001100010111011101111
11111110111011101001111011011111
00000000110101101101001100111010
11110101101010001111011110101001
00010001000000100010111111000100
11111011011011111001110100111010
00000101000000011001010100000101
00000011010101010101010110011100
11111100110010100100111001111010
00000001000101011100000000001011
00000111110010101110011000010100
00000011010001110101110110111011
00001010111010110000011110011010
00001000100101000000011100011110
11111100010100110010001011001010
00000000110010111101001101100010
00010011101001101011001000010001
00001111011010101110011110110001
11111000110101000010100001000100
11110111000100000000101100010001
11111110100010001010001011100110
11110100010001100000110101110001
11111001111010010011111010111111
00000000100000110110110110001111
11110101010010000000001111011011
11110011011110000111001011010001
11111111010000011000101100100100
11101110010100010010101011111000
00000001000101110000011100000001
00001011011011000001011101001001
00000110110100000011001000001111
00000110011011110001001110000001
11111110011001111000110110011101
11111011011101100001110110100101
11101111100101001001111100100111
00010100111010010001000000101110
00001000101001010011100000000110
00000001011010101100010001001000
00001000000010111111101101100011
11111101010110101111110011010000
11111000110011111111010010001011
11110001001110101101001000110110
11110110110100011101111000101110
11111100111100111000001001000101
00000101110111100101001111100100
00001100000001011110110110011011
11110101001010111111010001000010
11111100111111000111000011101010
00000011111110110100100011100010
11101111011110110000110110110101
11110100110110001101101110001100
00000000000010001101100010001111
11110101110011100110101010011001
11111000001101110011101110001000
11111110011000111000001111010010
00000011100101111101101101110010
00001000101100000100111110000110
00000111101011001011100010101001
00000100111100010101101111000001
00001001111100111111101100010111
00000101000110100010101101101011
11111000100100111001000000110001
11111000010011100100001001010101
00000100100001001110111101010011
11110111001100000100011111100111
11111101001011101111000110110010
11111100011001101000010111011111
11110101011000101100101001010101
00000011011000111001010001110100
00001011000100001110100011011111
11111101011110101010011001111010
00001000010010011010100000110101
11110100100100010000000110100100
00001000000010101000110111010011
11110111110011100011101100111011
00000101111000011010001101110101
11110111100101111011000110100011
00000011101110101111110001011100
11111000110000000010011000110100
11111010001010011100010011011010
00000011010100010001100101001001
00000000111110101110100101111111
11111010110100001000100010000000
00000010100111000001010011101100
11111001111100100110011001101001
00000011000111101100001001100001
00000000001010001111111110111001
11111101010101000111101011110110
00000111111110101000110001001101
11101110111100110111110010001010
11111110001101001111100000101011
11111001101100111000011110101011
11111101100000100001100011011001
00001010000101001111101000100000
11110101010110001010101100010000
11111011111011101001111110100011
00000101111111111110111011010100
11110011000101011111110000010010
11111000111001100001000110110011
11111101000100010110111010101000
11111110110001110011000011100100
11110110111101010001101000011011
00001001001110000100000000100110
00000010010111011010111010101101
11110111001000111010001010010110
11110011111100000110101101010110
11110100110001011011001000011001
11110011011110000101001000111000
11110100010111000111100001000110
00000010000111001000001111011100
11111100001001001001000100110110
00000010110011101100010110100000
11111110101000000001101110101110
00000000100011101011100111100101
11101110000100011010000001100111
11111110010011101011111101110011
00000101001111110110100111001010
11111101100101010010100000111111
00000001101011000000011001110000
00000111011010100101110010000010
00000110000101010100011111101100
00001000001101111111010000000011
00000011111001000111111010000010
11111111000111111101000111101110
00000110010111110010001010111111
00000101110111111001110111000000
00001010000100011010101110011110
00001101100100110000111001110011
00001011001011010001111001011111
11111110001001111001011001100111
11110011011100110101100010001000
11111100110010001101011010011011
00000011110111101001000100110010
11111101101111001100111011101010
11111100100111110001111011000011
00000110010100001101010000111111
00000101101000011100000110001001
00000101011100111111011001111000
00000000111100110001100101110001
00000111101101111101101001010011
00000110110101110110001100101110
00000100111010000001011110111001
11111000101011000101010100101011
11110011011110101000010110100010
00000011011011010000010000110110
11111100110000111001111001101110
00001001110001000101111001010100
00000101011101011110010101110010
00000100110001010101011110101000
11101100001110011000011010001101
11111100000100110000011011000011
00001001110010101011011011010001
00001011101100100001101101001011
11111100011100111000101000001000
11111100111000011110110111110001
00000101100000000100000000010100
11110100111110111111010101100111
11110110101101100111110011100001
00000011100101101001110110100001
00000100111111111100111001101101
11110110001010000000011100000111
11111101101001110101110100001011
11111001111011011111011101100110
00000110111011001000110110001111
11111110110100010101010000101011
11111111011101000010001010000011
11111110100010001001111111101111
11111000101001010011001110111001
00000100010011111110011111011011
11110101110011111011110011110001
11111010011101011101100101011111
11110111111001100001110001011101
00000001001110110100101111000000
11111001100101000010010011011111
00000001001101010000001111010111
11110111101100010111010101011001
11111111100110100000111110010000
11110100100111011110000111011000
00000000101001010100000011100011
00010000011000101100110100001100
11111001010001101000010101101000
11110101101010111111000011101011
00000001100100011001110001000011
11111100110010001111011111100000
00000110011001010100010100101010
00000011100010110100100100000110
00010110110011000010111001010101
11111111111010010110100111001001
00000101000111000110100011101110
11110110100101000101100111001001
11111110001110001000001100101001
00000100111010100010001000101000
11101110011011100101111101100001
00001011100111001100010110000011
00000000000010101001100011111011
11111110000110001001111101101101
11111101011100100111011100010110
11110101101010110101111001000100
00001001011001110001001000011011
11110101011101000101110100010100
00000100101100111101000111011100
11101110010110101111110110001001
00000010110010111100000000111001
00001100110110111101011110110010
11111100111000111010100001111000
11111100010000101111100000001110
11110100110100000110110100010101
00000001100111110000001100110110
11110101000110010001111101110111
11111100000110110001011111110011
00000011001011101110001001111110
11111000001000100011011011001100
11111010000001100010111110101100
00000100100000001101010010000011
11111111000100011011100100110010
00000000111100111010000010010101
00001110100000100111000011111100
11110000011010001010010110010001
11111111100100110101001011111100
11110110010100000111101000010011
11111000011001011001100110010101
11111111100100010000010100011101
11101010010100000011111011000011
11111000010110011110111100010001
11111000110011010111010011110011
11111010001100001111110001110100
11110110011110111101010101111001
00001101001001100001100000000110
11110001100110000010000010101001
11111000001010001000000100010000
11111011000000100001001010111101
11110111011010001101100010110100
11110100001011010001111001001110
11111000110000110001110011101011
11110000010001001110100000111111
00000100101000101001011100010101
00000101111011000011000100110100
00000101100111010100000001101101
00000010010000111001100101110101
11111001110100111101100101001101
11110100111111110101111001111000
11101000010100010100011101001001
11111100110110001011110111110101
00000001000100001110100111111000
11111011011000111110011101110010
11110101100010011110111000111110
11111010101001000000001001110101
11110111101001100010001011001110
11111000100110000100100110100110
00010000001001100111010001100010
11111001010110001000111100111001
11110001100001000101000101111011
11111001110001001111100100001111
11111001101000000001001100100011
11111011010011100011010111110001
11111111101110001111111110010010
11111010100000110111101001100111
11110001101111111111101111001011
11110000101011100000100101001100
11111111001010000110100010110010
00000101001000000111100101101110
11111111101100111111011000101111
11111111001111111111101000000110
