00000000111001110010111101100001
00000011000111111101100100111100
00000110000011110010110110111000
00000010000011011000000101101100
00000011010110101110011101100100
00000110100001100101001101011000
00000100010010111111011001001000
11111101011101011001000100101100
00000111001100000000101000111000
11111110010011100001001100011000
00000100010111011000110011100000
11111000100111100100100001111000
00000001101110000101110100111010
00000011100010101000100100010000
00000010100110101000100001001100
00000000010001101001111000001010
00000001011110101110000000010000
00001001001011001010110100000000
00000001011111110001000111110100
00000010101111110000110001011000
00000010110101000011000001110100
11111000110100000101110000110000
11110110010101010101010001100000
11111101000011100100110011000000
11111100000010011110111101110000
11101111101111010010111100100000
11110100011001011000001100110000
11111111011000010100101010000000
11111000000010100001010110111000
00000010111111011110110010101000
11110101000011111000110000010000
11110101100011011000110111100000
00000000111000110011001110110000
11110110001000010101011000100000
11110100000101111111100000110000
11101111011110011000001110000000
11111011101001000101001001111000
00000100010001111101000000001000
11111100110101111010101100110100
11110111110110101011010101000000
11111010111110011011000010101000
11111100010010011010000000001100
11110100100000010011011000010000
00000101001111000101110001001000
11111110000101101001110111111000
11111100001111110110110101010100
00000001011000111100010111001000
11111111110010110111011100001011
11111100000011100110001101001100
11111000011100001000000101111000
00000010000010110001110010100000
11110110110111000111001010000000
00000001010011000010010001111110
00000001011110111101011111000100
11111000101110110011011111001000
00000110111101010101100001001000
11111001100111011001001001100000
00000100110010011011100111110000
00000000000110111101111111101111
11111000110110101111010110110000
11111011010111011011010011000000
11111110010111101110101011111000
00000000011011111000011101010101
11111101101101100111111111000100
11111110000100000101000011100000
00000001100111101100100111011010
11110110011110001010110010110000
11111111011110111111011000101000
11111011111010111111010110010000
11111000110100100011011111001000
11111100111001010111110010001100
11111011111010001110101011000000
11110101111010101011110111000000
00000000111010101100111101101000
11111111010001010000000111010101
11111100011010010000101100000000
11111111011110011101100100101111
11111110011111011110011100110010
11111001111101001011000111000000
00000011000101100010110110101000
11111010000111101111010001001000
11111001100111101110010011110000
00000001011001010001100101100010
11111011010110111010010110111000
11111011011000111110000101100000
00000011101000101100000011101100
11110011011110101101111011100000
11111101101101001101110111111100
00000100111011111111000001100000
11110010000110011100000111010000
11110011001110101001110001010000
00000000110101111111111001111100
11111111111110111100011100111010
00000001111011101000001100100110
00000100001011100011010110100000
00000001000101110010110111010010
11111000111100010010100100001000
11111001100101001010011100100000
11110101111010100010011000100000
11111010110011110111111001111000
11111001100101101001010010000000
00000011011001000110011011011000
00000011100111000010011000110000
00000101000110110000100001110000
00000001100001001101101110001000
00000001101001111011000111000110
11111100101001100101000011101000
11111001000111000111101110100000
11111101001100111000101110011000
00000001111110101001110100110000
00000101001011000001100101010000
11111010100010010110101011101000
00000000001010011110111000010010
11111110110011011000100100100110
00000010001011110011111110110100
00000010100110000000011011001000
11111111010001111111100001100011
00000000100110110000010111000010
00000010000001110101011011010000
11111001011100111011100101111000
11111100011110000000001100010000
11111001001001010010100010101000
11111001000110001000010111100000
11111001011101000001100101001000
11110111100110001000001000000000
11111110110000111111111111101100
00000010110011000010011011010100
11111011101111000001110111100000
11111100111101011001001001100000
00000000011010111010100001100101
11110110001100010100110110100000
00000011001001010001010100000100
11111100000001011000000001101100
11111011100100101000101000101000
11111000111110110001100101101000
11111101101001010110000000111100
11110010101000101010100011000000
00000011110000010001001100110000
11111011011110110101000110111000
00000110000011111001111010100000
11111010110001110001000111010000
00000010011011010001011000001000
11111110110101010100011001100110
11111010001110000111000111111000
00000001110110100111110100001000
11110110101001000111111011010000
11111100010000000011000001000000
00000010010011101001111100100000
11111000011011101110111011100000
11111011000111100100111001111000
11110001011011101111010011110000
11111111001010100001100010110101
00000000000110011110001010001001
00001011000110001000110010010000
11111010101001000011001101010000
11111110101110011110101111000010
00000001001110100100000010111010
11111000000110110010100010100000
00000000011101100110011011011111
00000100010011011000111011101000
11111111101110011011010010101000
00000000011000010111101110001111
11111001001101100000111010010000
00000111101001011001010110101000
00000001010101110111110111101110
11111011000100011100111111011000
11111100011110001101110011100100
11110111001110001000100110110000
11111110011010001111111000010110
11111010011010100111101101010000
11111100001000110010101100010000
11110110110011011101101011010000
00000001001111000001111100101110
11111100001010101101010100110100
11111000111011111011111101000000
11110111100001011110011100110000
11111111111100110000110111110000
00000000011011110010111101011001
11111000000110110010111011111000
00000100100011011010001011010000
11111111111111001010101000110100
11111100111110001011010011001100
11111010111110000101000010000000
11110111000100111110000101110000
00000001011100111110110100000010
11111101110010010000001110100100
00000000101010000001110100001100
00000101101101101110011110110000
11110101011100111100011000010000
00000010101101000100010001010100
00000000011010110000010111101101
11111111100110001101001100100110
00000101000011010111100101100000
00000001111011001000110010100110
11111001110001010111101010111000
11111000001001111101101111101000
00000000001011001011110101001111
11110110001110010111111001100000
11111000101111010111011111000000
11111100101110101000011000010100
11110101011111010110000110010000
00000001101000010000110110101000
11111101110111110100001110000100
11110101010111100011111010100000
11111000011100110111110110100000
11111011000110111100110101000000
00000100001101001110010000111000
11111111110101111110110010011011
11111011101011000011010001110000
11110011001110110001110101110000
11111100010010110001011111101100
11111000110010101000100010100000
00000000010000100011011011011010
00000000100011111011110010001000
00001011111110111011101111000000
11111100111111101011110110000100
11110111001111101110110111100000
11101101100011000011001101000000
11111101011001011111101001011100
00000100110100011010101000111000
11111100100010101010110001111100
11111101111001100100001000001100
11111100010010001010100001101100
11111000010010111100100001110000
00000000011101011011100000110000
11111111100111110110011010110001
00001000101100011111010100010000
11110001100010010101110010110000
00000001101001110011011001101110
11111101110000101000000100000000
11111101101000110010011001111100
00000000000111001011111001110100
11111100100100111101010100101100
11111000000101000011100010111000
00000101110011010100110110011000
11111111110110011011110010110011
00000001011001010110011101001000
11111110110011000010000010110110
00000010011111000000111011110100
00000110101111110110000001100000
00000010011000011000111001001000
11111101100000101110000011111100
11111110000111001010000011000000
00000010010101001111010000011000
11111011000101100101100011101000
00000011101001110001110111101000
11111101000111010010111110111000
11111100100001011001101111110100
11111111111101101111110001100001
11111110111111010111100010111000
00000001101110110000101000101110
11111001011000111110011001111000
00001010111010110111100110010000
11111001001001101010011000100000
11111100101011100111101111110000
00000000101111100111010110000100
00000011101111000101101000010000
11111110000010010011101111001110
11111000111111111010010000011000
00000011110110111001111111000100
11111011000111010100101110111000
11110011010101101110001010010000
11111011110001000001111000010000
00000100001111000101011101010000
11101111010000010001101110000000
00000010010100000100110100111000
00000010101010000100011101011100
11111010001111010001001111101000
00000101101000011001011011011000
11110111001000011010000111000000
00000011110101100100111001000100
11111011000011000001001111010000
11111000101110010010010010111000
11110101000110011000011110010000
00000001101000100100010000101000
00000000011101000101110000111011
11111110110100001000000011010000
11111010111001110101011000010000
11110100100001100001101000000000
11111100100011000111111010000000
11111100100010111000011010110000
11110010000101001101001011100000
00000101101011010011000110010000
00000000111010001010110111011100
11111001010110010101001110101000
11111110001001010111110101101010
11111010100110010100010111110000
11111110110010100000001010111100
11111101110100100111011000000000
11111100101100110100110011110000
11110010001100010011001110110000
11110101011000111111101101000000
11111001000110001110000100010000
11111110100011011110110000011110
11111011111011010001100001110000
11110111110010101001010100000000
00000001110000010110011100001110
00000000100011011010011001011000
00000010011011111011011111010000
11111011100111111001110111000000
11111110001010000101110101010110
11111100101101010000011010110100
11111001101100010010100011010000
11110111000010101011011111110000
00000011100001111111110010011100
00000001010010100111011111111010
11111000011101011010101101000000
11111101101110001001000000110100
00000010010000101000111101011000
00000011010001001010101111000100
00000011101001100001111000001000
11110100001011010100000101110000
11111101011111111101000010110100
00000100010100110010100100100000
00000000101100011111000011111110
11110100100110011110100001110000
11110100010100101000011100110000
11110110000001000100010011010000
11111010110111000110100011011000
11111000001011011111000110100000
