11110011000110110111110101010000
11110110011100100001101111000000
11110011010110010010101100110000
00000001101110001001010110000110
11111101001100111000001000001100
11101110000100111101011110000000
00000000101010001001010010111011
11111110110001100010011001101100
11111100101110011110101101110100
00000000001000001100111000111010
11110001001000000011011001010000
00000110101101110111101001010000
11101111001100001111110000100000
11110001011101001010101111000000
00000010100111011011000111111000
00000001011111110100000111100000
00000010100001100100100100111100
00000110000011100110100111010000
00000101010110001011000100101000
11110000101110001110101011000000
00000010110011100001010000011100
00000101011001000010001010000000
00000000000011011110111101000000
11111110010010101101000000010110
11111010011000110111000010101000
11110010010010100100011100110000
11110011110101001011011110000000
00000110011110000111001001010000
00000010000000110001100000000100
00000001100000101101110110010110
00001001000110100100100010000000
00000010111010000000001110101000
11111101110100001000110000010000
00000011101101110001010001101000
11111111011101000010111001001011
11111111100110001100111011101010
11110010001111110101011000100000
11110111101101010111001101000000
11110100111100100011100101110000
00000011000110101100110011101000
00000100111000110111000111000000
00000010100010110110100100001000
00000000100100000110101111010101
11111111011010001111110000100000
11101111001111111111100100100000
11111001001011110011101001000000
11110100001100111100111111100000
11111101010011010011101100111100
11110011000111100000100001000000
00000101101001010110110101000000
11110000000100001110111110000000
11110000100100111011011001110000
11111010010000011010110101111000
00000011111001011000000111010100
11110000010111010001011101100000
11111011000001000010101001101000
11110001111110100101111001010000
00000110101011100100000110110000
00000010100111110000000110111100
11101100001010101110111001000000
00000011111100110011100101100000
11110111111001000100001011010000
11111100001101010010110000111100
00000001100101010001101011111000
00000000100101010000110011001011
00000010000010101111101010100100
11110110111011110001110011010000
11110110011010111110010010110000
11111001111111010100110100100000
00000100011010000001110010110000
11111111100011100111101101001010
11110011100010000101111110000000
11110100010110110001010001110000
11111101101100100001011011110000
11110010001110101101010011110000
11110010100111010101110110000000
00000110110110101100000100101000
11110000011000001100110000100000
00000010100101000110101101000000
11110110011101111001100100010000
11110001010111000101101101010000
00000000010001100010110001101110
11110110101110010101101101010000
11101111001111011001000010000000
11110100100001000000000011010000
11110111011111100101000011000000
00000000101101110011000101111100
11111110000000110101100011010110
11111001101110011001000110101000
11111001111100111101010011111000
00000010110000111000001100011100
11110011001100111011100000000000
11111011101101100111010101000000
00000001000001100011011100100110
11110100110110010001101101000000
00000011100100100101000000001000
00000001111110001101000001100000
11111110000111111000101111011100
11110100111010001010001110000000
00000000111001110111000011110100
00001001001010000101001100110000
00000001001010010101101110110100
11111010000110100111111000100000
00000011101101001101101110111000
11110000110110011000101101110000
11101111010000101100101010000000
11110011111101111101100111000000
11111110100110110101100010000010
11110000011001110011101101000000
11110001100010000011010110010000
11110110101010110110110010100000
11110101000000000010111011110000
11110010101001101100100100110000
11111000011000111000100101110000
00000011000010001101111010010000
11110001011101110000111100110000
11111100000010101100001111110100
11111110000001001111100010010010
11110101001001010000010100000000
11110101101001100000110100110000
00000000110000101001100101111110
11110100000011001011011001010000
11111001010101011000110011001000
00000000111100001111001100111010
11111110001011100111111100000010
11101110010110011111000010100000
11111110011011110101000110100100
00000011101001010111101011001000
00000000100100110010100111000111
00000001000110101000100111001110
11111000010001110111100100111000
11110101010111100101110010110000
11110100101101110100011011110000
11110001101001101101101111110000
11111100101111010011001011000100
11110001100100011010111111000000
11111011100110010000001100011000
11110110100100011111100111000000
00000101010001100011110110110000
11110010110010110000001000010000
11110001001100001001111000010000
11101110110000010110100100000000
11110100100010111100101011110000
11111100100110011110011110001000
11110110010111111111101110010000
11110001000000010010001110000000
11110010100100111010101010010000
11110100001110110001000011110000
11111111110101100011110110010110
11110011000010111111101001110000
11111111001010100100010000101001
11111111100010110110110111000011
11110111011000001111011101110000
00000001011111111101011111011110
11111100111000110110101110010100
11110001010001000101001001110000
00000101010100011111111011000000
11111111101010011110010101110000
11101110101111110001000001100000
11111110111001111010011110001100
11110000110111111001001101110000
11111010001000010100001111100000
11111110111101101111011000011010
00000010100001111110011111111100
11110000101010111110100010010000
11111001010100010100010100001000
00000000100010011000001111100110
11110100000110101110000100110000
11110110011110110000010000100000
00000001100101010100111101011010
11110100010110000101000110000000
00000011001001111100100011101000
00001000101110011110010111000000
00001001010101111110100000110000
00000101011110100110011110110000
00000000001011000101100100100100
00000001110100010011110000110100
11111001001010111010001111010000
11111110010001110110000101011000
00001001000000111100101010010000
00000001111101000011101011111110
00000000010011000100110010000000
00000001111101001110001100011110
11101111011011001000000001100000
00000000101101010111101011100101
00000001010111111010100100001000
11111000000000100111100110100000
11111110001001001100001100101110
00000000101010011101010111011100
11111001001000001000000111100000
11111001001001000101010100101000
11110011100000001110001001010000
11110110011010010111001101100000
11111010110000101010100011101000
00000101100100101110101010010000
11110100000000011010111101000000
00000111001100001110011000000000
11101101001101000000001110000000
11111011001110110110101111110000
11111011111010010101111111110000
11110111110101001100010010000000
00000000001111011110010001000011
00000000100101110010110100000011
11110111101011000111111110110000
11110001000000101111001011100000
00001000000010101111110000010000
11110011011111111011111110100000
11110101111000011001010010100000
11110111001000110011000100110000
11110100001110011011011110000000
11110001111100000010110001000000
11101011101010000010001000100000
11111001101011000000011110111000
11110101001100010110001101000000
00000100111010101011010000111000
11111100100100010110111010011000
00000101110111000010110110000000
11110001101111110011011001000000
11111111101101111001000011110111
11111000101100100101010000101000
11110010000010100110111011010000
11111000101000110010111011111000
11110100011001110001011010110000
11111000100010111000000001101000
11110010000010011111010011100000
11111000010000111010000010100000
11111111100110110110010101101110
11111100010101001001011101110000
11101100101011000000010010000000
00000100011010101101110010011000
00000001101010110011100100010000
11110110111100110101011010110000
11110010111000000011111011000000
11110100110110100101010110000000
11111101101110000100011000000000
00000010111100000011101100011000
11110000000111100001111011110000
11101101100010110011100100000000
11110010111001110011011000010000
00000001111011001111011001110000
11110101000001111001100011100000
11110010010111101010110111010000
00000000000100110110011100100000
11101101011000110010101110000000
00000011110110001001001000110000
11111011011110011011111010011000
11111000110111111001011001101000
00001001101010010010111100100000
00000010110110100100100110011000
11110110000100100110010011000000
11111010111001101111101111100000
11111000110101000111001111110000
11111001111101001110101000000000
11101110100111110010111110000000
00000011101100011011100011111100
11110010011101010101110011000000
00000010100001101011010011011000
11111001100010100100000101000000
00000001011010101111000010100000
11111011110101010101111010001000
11110001000100101000111010010000
11101100010000000010000110100000
11111101000111100001101001101000
11110100001000110101011010010000
11111101010000111110111001110100
11110110111000000000110011110000
11110111001000000111001000100000
11111011000110000011100010101000
11110010110001100011110001000000
11110100011110011011111000110000
11110100101101111001100001010000
00000001111011100000001001010100
00000011110100001000101011101100
11110001111111011001001011110000
11110101010101001110111011100000
00010000101001111010100000000000
00000110000011101111010000110000
11111001001001100001001101110000
11111011111001101000111100101000
00000100001000110000000110001000
00000010010001001011010010111100
00000100000010111100111100110000
00000010101101111111101100100000
11111001000010011011000110110000
11110011110010011000011101110000
00000000100011011111011000001010
11101110001011100010001101000000
11110011011111010100001010100000
11111000111111111101010010000000
11110110101001111010101100000000
11111000101110000001001101010000
00000001010001010100000000011100
11110001000100100101100011100000
11110101010001110100001001110000
11111001011101100001000111111000
11111000101011110100111110011000
11111100000100000101011010100000
11110001111110101000110101110000
11111101111101000100100011100000
00000001000001110111110000001000
11110100100100000000001011010000
11110101011010010101011001000000
11111000011011010000011000011000
00000010001001101011000111010100
00000001101010111111001001000100
11110011000110100100010110000000
11111100101100101100101000010000
11110110011011000011001101000000
11110110100100010110010000010000
00000001010010101001110111100010
00000011111001100101101001111100
11110000011100101110100001100000
11111001101011001000111011000000
11110011111101110000010110100000
11111010101001110001111101110000
11111000100111001011110100100000
11110100001000001111010111110000
00001000111101011001110111010000
00000010011010011001110001001000
11110000100110011001011111110000
