11111100111010111001011000001000
00000100011001111100001100001000
11111111010100110110101011001111
11111101010011101111011111100000
11111110111110001000000011010010
11111100101111101100100001100000
00000000101011100011111010000100
11111011111100001101011001111000
11110111010011000001110100100000
00000100111100011110011100000000
11111111000001011000100010111001
11111111011001000000001001001110
11111110010000001100101011011000
11111110110001100010000100111100
11111100111011010110110011001100
00000001010001001000000011101010
00000101110101110010000101101000
00000100011101100010100001111000
11111100111001010110010001011100
11111111011001111011111010000111
00000010100000111010100111010000
00000010101111000100111000001100
11111101111001001100100110101100
00000000011011110001000100001110
11111011111010000000011001000000
11111100101111001010000100010100
11111111001100011101110010110010
00000000000101011100011010110111
11111100111101110101000101101000
00000000011000111000010101100010
00000010111111010101010000010000
00000000010101000111010010001111
00000001010001111010110100111000
11111110101101001011101011111000
00000001000001010100011001001010
11111110111110001000101110011100
11111100011101000101111001101000
00000111000001010001011101110000
00000100000011110100110001111000
11111110000010010001011111110110
11111100010101000001111101111100
00001000011010001011011001010000
11111111101111010001001011100010
00000001011111000101010010101000
11111100100101010110100010000100
11111011111100111010010010110000
11111100101111011100010001011100
00000010000100101111101110011100
00000011110101100111010110110000
11111000100110101110111011010000
00000100101001000101011000101000
00000001101101000111100100000010
00000010111110110111000111100100
00000000111100000101101001101000
00000001101000110100110101010100
11111001101111010100111001011000
11111111110100001110110000100001
00000011010000100110000011010000
11111111001001010101100000010111
00000001000010011111111001011000
11111110011010111011111100011110
11111110001100001001100100000100
11111110000011110100011001100000
11111111110111001110010101000101
00000000110110111010000000101101
11111111100010110001000101010101
11111110100111001111100101001100
11111101110010010111100101011100
00000001011000110101010110111110
00000000110100111100001110011010
00000000001100110011001100001001
11111111011001100100100100010010
00000000101100101111000111110000
00000001101001000110111101101100
11111110011000101100100111000100
00000001010111011100101000011010
11111111001001010101011011011100
11111101000110010010001100110000
11111111001001110010110110110111
11111101011010011100100001001000
11111111001100001010000010111000
11111110111010001010001101100000
00000011111011100011000001101000
11111110110110010000110110001110
00000000001101110101001100111001
11111101101000011111000101101100
00000000001000100101101010100011
11111111110111111101100011011000
00000001111111010001110101010000
00000000010100101111110110101011
11111111000001100110101010011001
11111111011110110101111111010000
00000001001000011100110100011010
00000010011001100001101000101100
11111100111110001000111011010100
00000001011110110000000011111000
00000010000010011000010100000100
00000000010010000001010000111101
11111101100110101110100000100000
00000001010010100001100011111000
11111111011001111101011100111010
00000001100100100001010010111110
00000010101010001100100011000100
11111111110001110000110011111010
11111101111010011000010011111000
11111111100110110011101011001011
11111111011000001011101111110000
11111111101011111001111011100011
11111111011100010100000101101111
11111111010111001110011010010010
00000010011010110010100111011000
00000001101011101100110110011010
00000000110011000101110100101001
00000000100001101010110101101001
11111111001010110010011101101001
11111111110000100011101100110011
11111111011101101101111110111101
11111101010101110110111101000100
11111111110101011000100000000101
11111110010100010101101011011010
11111111101111110101001100001111
11111110101000100001111001001100
11111101111011110101000101100100
11111111100010100100100100010001
00000000000011001101011010010001
11111111000100110001011110011000
11111111000001011100100001110101
00000001111110010011100011101000
00000000011101100100110011101010
00000010110100111001100011011100
00000000101011000000101111010001
00000000101100111001101111110111
00000010001111010010011111110000
00000000010101100001101110101110
11111100111100100001100101100000
11111101011101101111000110011000
00000001100011001000110111001110
11111111100010100000000100001110
00000011110011010010110100111000
11111110010001000100111010010010
11111101101111110100110111110000
00000001100110001100011000010000
00000000011110110110100111000110
00000010100111010011111001110100
11111111110110011001101010101100
00000001001001100110011100000000
11111101101100000110011100001100
00000000111010100001110000010101
00000000001101110111111111100011
00000000110110110110011011111001
11111111111100011001001111101001
11111110001110111111101010110100
11111110101010100011011000010000
00000001110101001010000111110110
11111110011000110011001010000100
11111111100101011000110000100010
11111110001101111111110011011010
00000001101110111100011110100010
00000000100101100000010111001001
00000010100010001100010011101100
00000000111101111100100011000111
00000001110110110000011011010100
00000011010100100010100111001000
11111111011011010101100100011110
11111101110101001110111101011100
00000001000110000110011010000000
00000000011110111001000001100010
00000010001100100000000000001000
00000001110111011001100111110000
11111111010110011100101000101010
00000100110011111000011100001000
11111110011010100000100011001100
11111110101110000011001000111010
11111101001011010010111011101100
11111110100001011001010101011100
11111111011010111100011011010001
11111111101101000010100011011010
11111111100010110001000101010111
11111111001011011011100010111101
11111111100111110000110100100111
00000001000101011111000001101000
00000010001110101010111010001100
11111111001000001101101101111000
11111111110111000100111101110110
00000010010010000011110000000100
00000001001001011110000001010010
11111111111001010111111011111011
00000001100110110000111110010110
11111111110000000000011111001101
00000010100011000101011110011000
00000001001110101010111001100100
00000000011000000101110110111111
11111101011100101000010101010000
00000001011001011001111101011010
00000001001111111101000100111110
00000010011110100110011101100000
11111110100000010001100111001000
00000000001101100110111100010100
11111111110101101101000001111100
00000010011000001100011100100000
00000000011000000111011000001001
11111101011110010110011001100100
11111110011110001011111000001100
11111110110010001111001110001100
00000001010110011010011011010010
00000001001011110100000100111100
00000000010011011011001100111010
00000001001111110111111110101110
11111111000000110011110101001000
11111111110000000011100100011111
11111110010010111001000000101110
11111011000001111100101011010000
11111101100011111111110001101000
00000001001000101111010000101100
11111100100111101100000101010000
00000011010100011011101011111100
11111101110010110110000011101100
11111111111010111001011101000111
00000000011010011011011011110101
00000011010001011100100000101100
00000001011011000010000111100110
11111111001101011111011111011111
00000000100010010000011000110011
11111101110100001000100100001000
00000000111001111111111110010001
00000000111011101011011101010100
11111101101100001100111111011100
11111101001010000011000000111000
11111111001000011010011001011111
11111111100111100100010100101110
11111110100011110010001011100000
11111110001111011011001110011010
00000001001100010010100111111100
11111111010011100100101000010110
00000001011111101010111001101110
11111111110001001101010100000000
11111100011110101111010100010000
11111101100100010110111100101100
11111111100101000000010101110000
11111111010000101011001110101100
00000010111001110011011010001000
11111110110011011000011000110000
11111111001011000001100111000111
00000001110011100110100011111010
00000001110111011010000100110100
00000001110100010000011111111010
00000010101000011010001001110100
00000000111101110111110000101111
11111111101110111011000110001000
00000010001111110010101101011100
00000010100100011011001001001100
00000001001000001100101100011100
11111011011110100001001000010000
11111111110111001011000001001110
00000000010111111010111010100101
00000000111000010011001000110011
00000001011011001110100110000000
00000001110110101100100111110010
00000001101101011110101111100100
11111110101100010000111110000010
11111111001110011111010000011101
11111101100111110101011111010000
00000001000000001011111000101010
00000001110011010011110011010010
11111111110101000110001010000001
11111110001101000101010010000110
11111110100100010101000110111000
00000000110111011111000100111000
11111111110111011101001000101011
00000001110000110001011110010010
11111011101101100111110001010000
00000010000101011111001001111000
00000100001000001110011101000000
00000011101000011110011110000100
11111110111111101101011001100100
00000001001001001110001100111010
00000010111101000110100001101100
11111111110100000000010010011010
11111110010110010011101001100010
11111110111000100000111000110010
00000001001100001001001110000100
00000001110000110011101011010000
00000001011000111011100011010010
00000011101001001101011001100000
11111101001000110011100001110100
11111111001110101011010010101100
00000000110011111001001010010111
11111110000000011100110000110100
00000001010111000001010100100110
00000001111101111100100011110100
00000011001001100010001111011000
00000001010111100010101101000010
11111101100111101101011000100000
00000000001010100110000110110100
11111110011110110100000001110100
00000000111000001111111000101010
00000001010001001001101000000000
11111110111111001010011011011000
11111110100011100000101100111000
11111101000000110110001100101100
00000000011010111000110010000110
11111110010100010000111000011100
11111110000010001010011001011100
00000001110001110100100010111100
00000001011000000001010101001110
00000000001101110100101110010111
00000100101101010110010110111000
11111110110000101101011000111000
11111110111001101000111011111100
11111110011101001111010111010100
00000000111000100000001110011100
00000001101110110000000010001100
11111110001101011101011000100110
11111111100100100000111011111111
00000000011010101010110010010101
00000011110111110000101000111100
00000001110110000101011010010010
11111111100100111101111011110000
11111101100010001000110001110100
00000001010010000010111110011110
