11111001100011011011111010101000
11111011001110010000110111100000
11111001101011001001010110011000
00000000110111000100101011000011
11111110100110011100000100000110
11110111000010011110101111000000
00000000010101000100101001011101
11111111011000110001001100110110
11111110010111001111010110111010
00000000000100000110011100011101
11111000100100000001101100101000
00000011010110111011110100101000
11110111100110000111111000010000
11111000101110100101010111100000
00000001010011101101100011111100
00000000101111111010000011110000
00000001010000110010010010011110
00000011000001110011010011101000
00000010101011000101100010010100
11111000010111000111010101100000
00000001011001110000101000001110
00000010101100100001000101000000
00000000000001101111011110100000
11111111001001010110100000001011
11111101001100011011100001010100
11111001001001010010001110011000
11111001111010100101101111000000
00000011001111000011100100101000
00000001000000011000110000000010
00000000110000010110111011001011
00000100100011010010010001000000
00000001011101000000000111010100
11111110111010000100011000001000
00000001110110111000101000110100
11111111101110100001011100100110
11111111110011000110011101110101
11111001000111111010101100010000
11111011110110101011100110100000
11111010011110010001110010111000
00000001100011010110011001110100
00000010011100011011100011100000
00000001010001011011010010000100
00000000010010000011010111101010
11111111101101000111111000010000
11110111100111111111110010010000
11111100100101111001110100100000
11111010000110011110011111110000
11111110101001101001110110011110
11111001100011110000010000100000
00000010110100101011011010100000
11111000000010000111011111000000
11111000010010011101101100111000
11111101001000001101011010111100
00000001111100101100000011101010
11111000001011101000101110110000
11111101100000100001010100110100
11111000111111010010111100101000
00000011010101110010000011011000
00000001010011111000000011011110
11110110000101010111011100100000
00000001111110011001110010110000
11111011111100100010000101101000
11111110000110101001011000011110
00000000110010101000110101111100
00000000010010101000011001100101
00000001000001010111110101010010
11111011011101111000111001101000
11111011001101011111001001011000
11111100111111101010011010010000
00000010001101000000111001011000
11111111110001110011110110100101
11111001110001000010111111000000
11111010001011011000101000111000
11111110110110010000101101111000
11111001000111010110101001111000
11111001010011101010111011000000
00000011011011010110000010010100
11111000001100000110011000010000
00000001010010100011010110100000
11111011001110111100110010001000
11111000101011100010110110101000
00000000001000110001011000110111
11111011010111001010110110101000
11110111100111101100100001000000
11111010010000100000000001101000
11111011101111110010100001100000
00000000010110111001100010111110
11111111000000011010110001101011
11111100110111001100100011010100
11111100111110011110101001111100
00000001011000011100000110001110
11111001100110011101110000000000
11111101110110110011101010100000
00000000100000110001101110010011
11111010011011001000110110100000
00000001110010010010100000000100
00000000111111000110100000110000
11111111000011111100010111101110
11111010011101000101000111000000
00000000011100111011100001111010
00000100100101000010100110011000
00000000100101001010110111011010
11111101000011010011111100010000
00000001110110100110110111011100
11111000011011001100010110111000
11110111101000010110010101000000
11111001111110111110110011100000
11111111010011011010110001000001
11111000001100111001110110100000
11111000110001000001101011001000
11111011010101011011011001010000
11111010100000000001011101111000
11111001010100110110010010011000
11111100001100011100010010111000
00000001100001000110111101001000
11111000101110111000011110011000
11111110000001010110000111111010
11111111000000100111110001001001
11111010100100101000001010000000
11111010110100110000011010011000
00000000011000010100110010111111
11111010000001100101101100101000
11111100101010101100011001100100
00000000011110000111100110011101
11111111000101110011111110000001
11110111001011001111100001010000
11111111001101111010100011010010
00000001110100101011110101100100
00000000010010011001010011100011
00000000100011010100010011100111
11111100001000111011110010011100
11111010101011110010111001011000
11111010010110111010001101111000
11111000110100110110110111111000
11111110010111101001100101100010
11111000110010001101011111100000
11111101110011001000000110001100
11111011010010001111110011100000
00000010101000110001111011011000
11111001011001011000000100001000
11111000100110000100111100001000
11110111011000001011010010000000
11111010010001011110010101111000
11111110010011001111001111000100
11111011001011111111110111001000
11111000100000001001000111000000
11111001010010011101010101001000
11111010000111011000100001111000
11111111111010110001111011001011
11111001100001011111110100111000
11111111100101010010001000010101
11111111110001011011011011100010
11111011101100000111101110111000
00000000101111111110101111101111
11111110011100011011010111001010
11111000101000100010100100111000
00000010101010001111111101100000
11111111110101001111001010111000
11110111010111111000100000110000
11111111011100111101001111000110
11111000011011111100100110111000
11111101000100001010000111110000
11111111011110110111101100001101
00000001010000111111001111111110
11111000010101011111010001001000
11111100101010001010001010000100
00000000010001001100000111110011
11111010000011010111000010011000
11111011001111011000001000010000
00000000110010101010011110101101
11111010001011000010100011000000
00000001100100111110010001110100
00000100010111001111001011100000
00000100101010111111010000011000
00000010101111010011001111011000
00000000000101100010110010010010
00000000111010001001111000011010
11111100100101011101000111101000
11111111001000111011000010101100
00000100100000011110010101001000
00000000111110100001110101111111
00000000001001100010011001000000
00000000111110100111000110001111
11110111101101100100000000110000
00000000010110101011110101110010
00000000101011111101010010000100
11111100000000010011110011010000
11111111000100100110000110010111
00000000010101001110101011101110
11111100100100000100000011110000
11111100100100100010101010010100
11111001110000000111000100101000
11111011001101001011100110110000
11111101011000010101010001110100
00000010110010010111010101001000
11111010000000001101011110100000
00000011100110000111001100000000
11110110100110100000000111000000
11111101100111011011010111111000
11111101111101001010111111111000
11111011111010100110001001000000
00000000000111101111001000100001
00000000010010111001011010000001
11111011110101100011111111011000
11111000100000010111100101110000
00000100000001010111111000001000
11111001101111111101111111010000
11111010111100001100101001010000
11111011100100011001100010011000
11111010000111001101101111000000
11111000111110000001011000100000
11110101110101000001000100010000
11111100110101100000001111011100
11111010100110001011000110100000
00000010011101010101101000011100
11111110010010001011011101001100
00000010111011100001011011000000
11111000110111111001101100100000
11111111110110111100100001111100
11111100010110010010101000010100
11111001000001010011011101101000
11111100010100011001011101111100
11111010001100111000101101011000
11111100010001011100000000110100
11111001000001001111101001110000
11111100001000011101000001010000
11111111110011011011001010110111
11111110001010100100101110111000
11110110010101100000001001000000
00000010001101010110111001001100
00000000110101011001110010001000
11111011011110011010101101011000
11111001011100000001111101100000
11111010011011010010101011000000
11111110110111000010001100000000
00000001011110000001110110001100
11111000000011110000111101111000
11110110110001011001110010000000
11111001011100111001101100001000
00000000111101100111101100111000
11111010100000111100110001110000
11111001001011110101011011101000
00000000000010011011001110010000
11110110101100011001010111000000
00000001111011000100100100011000
11111101101111001101111101001100
11111100011011111100101100110100
00000100110101001001011110010000
00000001011011010010010011001100
11111011000010010011001001100000
11111101011100110111110111110000
11111100011010100011100111111000
11111100111110100111010100000000
11110111010011111001011111000000
00000001110110001101110001111110
11111001001110101010111001100000
00000001010000110101101001101100
11111100110001010010000010100000
00000000101101010111100001010000
11111101111010101010111101000100
11111000100010010100011101001000
11110110001000000001000011010000
11111110100011110000110100110100
11111010000100011010101101001000
11111110101000011111011100111010
11111011011100000000011001111000
11111011100100000011100100010000
11111101100011000001110001010100
11111001011000110001111000100000
11111010001111001101111100011000
11111010010110111100110000101000
00000000111101110000000100101010
00000001111010000100010101110110
11111000111111101100100101111000
11111010101010100111011101110000
00001000010100111101010000000000
00000011000001110111101000011000
11111100100100110000100110111000
11111101111100110100011110010100
00000010000100011000000011000100
00000001001000100101101001011110
00000010000001011110011110011000
00000001010110111111110110010000
11111100100001001101100011011000
11111001111001001100001110111000
00000000010001101111101100000101
11110111000101110001000110100000
11111001101111101010000101010000
11111100011111111110101001000000
11111011010100111101010110000000
11111100010111000000100110101000
00000000101000101010000000001110
11111000100010010010110001110000
11111010101000111010000100111000
11111100101110110000100011111100
11111100010101111010011111001100
11111110000010000010101101010000
11111000111111010100011010111000
11111110111110100010010001110000
00000000100000111011111000000100
11111010010010000000000101101000
11111010101101001010101100100000
11111100001101101000001100001100
00000001000100110101100011101010
00000000110101011111100100100010
11111001100011010010001011000000
11111110010110010110010100001000
11111011001101100001100110100000
11111011010010001011001000001000
00000000101001010100111011110001
00000001111100110010110100111110
11111000001110010111010000110000
11111100110101100100011101100000
11111001111110111000001011010000
11111101010100111000111110111000
11111100010011100101111010010000
11111010000100000111101011111000
00000100011110101100111011101000
00000001001101001100111000100100
11111000010011001100101111111000
