111111011011111001
111011101011100010
000100011010101101
000111000001100010
111110101110110001
111011010111001010
111101111101100111
000011111101011111
111100111011011111
111010100110011111
000010111010101001
000001000000111001
000010001100110111
000011010011011101
001001101110111100
111101111001100000
111100010011010001
111101000110000100
000110010000011010
000100000000110110
000010000011110000
000011000101101111
111100101001010101
111110010110111110
000000111110110100
000010110101011110
111110100111011110
000001011010101110
111001101000010100
111001010111101111
000111011100100111
111111011010110000
000111001101111100
000110110011100100
111110111001110010
000101111100111011
000000011111010111
111111111100100001
000101110000100111
111110011111000001
111000110001011000
000011101000001010
001001010000111010
001001000101101111
111111111111001011
111110100100101000
000001000010000110
111111111101110100
111110101100101000
111100100010010100
111101010001010100
111110011110110001
111110111110101011
111110111101101010
000100000010000011
000011000101110101
111011010011110101
000001001011100010
111100010001010001
111010011101100010
000101100000110010
111101110110001101
000000010100000111
111011111110011100
000000100110100100
000100100111111001
111110000011101001
111111000111110100
111110101111011110
111101011011100010
000000110000100110
111101001000100001
111110001101100111
000000101010010011
111110100111110011
000010000111110011
111110111001001110
111110011101110100
001001000010011000
111101000011110011
000011111100001110
000010101011110001
111110100000011010
111101110011000001
000010101000001000
000110010111001011
000000101010001000
000011110001110001
000011010111101010
111111001011011001
000011010010000010
111110010110111110
000010101100100111
000010101110010000
000000110101101100
000010110100000111
000101001110111001
000011101010001001
001011110011110111
000000001100110010
111010111110000100
111111000010010100
111111010100011110
000011001110010000
111010010001000111
000000100100001001
001000100111010000
001010100100010000
000000000100111111
111101011110110011
000101011001101001
000100101010010111
000000100001000001
111110011001100100
110111101001100101
111000001100101111
111111001110001010
111100100000011110
111110000111100111
111010101010101111
111101101011100000
000001011011101111
111111001000101010
111111001011111100
000000000010101110
000001010101011011
000000101110111010
000011100000011010
000001100011111111
000001101010001011
000010111010011001
111111001101001111
110111010011100100
111101010000010000
111010011001101100
111100111001110101
111100000000101110
001101001100100010
000100100110111111
000001000000100111
000100001001111100
111010001101110011
001001101100011101
111101000101000011
111111010011001100
111100000010101110
111110000011001011
111100110011011111
111101100010100110
000000001101011110
000011100111111101
000001011101000101
111110011010100001
000000001110101001
000010111110001101
111110100000100101
000011101001111001
000001111010111110
111100101100101101
000001110011101010
001010010000011111
000001000010010101
001011100110010000
000010101001110010
111110100010010100
000000000010100010
000001010011010110
000001010100100100
111010000111010011
000011011110100010
000000110100000000
001000101001001010
111101100001100101
111001010100011110
000001111110011011
111111101111100111
111100110001111110
000000000001001001
111111010101101101
000001001010111100
111101101111010011
111111001110111100
111110101111010100
111000101100001110
111100100000011010
000110000101111000
111011100110111010
111101101001011101
111011100111001111
111100011010011101
000001110101010111
111100000000011100
111110011010000100
000001101001110111
000001111110110000
000000001110101100
111011111111011001
111100001001110010
111101001011011011
000010100011001001
111101110001111101
111101000111010010
111111000111011010
111111100100110011
000111101100010010
000000100100010110
001001011101101111
000010100101010001
111101010010000001
111100011001110101
000010011001110101
111111100001110001
000011001011010011
000010101010001101
111110100010100010
111010101011110001
111110000001001111
111100111100111000
111110101100000100
000101010010000001
111111111001100100
111100010111100101
000000110111001110
000001100001010100
111111111010000110
000001000111001011
000101010101011101
000101111010011000
000001110001001011
000010010010110000
000001000101111100
111010111010111000
000001000110011110
000000111011010111
001011011100010000
001110100010011100
000001000001101100
000100111001111100
000110011000110100
000001101001010111
111100000001110011
111101100101101110
111010100110010100
111110110001010100
111110111000100000
111111100100011000
000000101101110011
000000000011111100
111110101100000010
000111101111100110
111111100101011010
000101111000001001
000001011110101111
111111110111110000
111110101011010011
001000011101001011
000010101001010110
000011011100110100
111011011100011011
000101000111001001
111001100110101011
111001110000110110
111111101111100001
000100000001000111
111110001100110010
000100100000000101
000010010111110110
000001010000010111
111101010101101100
111110100110001100
001001001000111010
111110100011111100
000011111000000110
111010111000010111
111111110110011001
111101110111100100
000000011011011010
000000101001000100
111111001001110010
000100011010001011
000010100010010100
000001111101011111
001010000111000010
111111110111011001
111111110111111110
111100100110010111
111100111000000100
000100100110000111
000100001001000010
000010100000001011
000001111101011001
000110100100110110
111111110001010010
111111110101110000
111101110011001000
111111110011111001
111111001000111100
111110111000110101
000001010001101101
010000101101011110
000100101111010001
000001110001111011
000010100001010110
111111001100101010
000001111010111001
000001010101111001
111100101100011101
111111110000001111
000000110000111110
111011100100011000
111000100110011011
111010101100000111
000000010111001111
111110110100101011
111100101000111100
001010010111011100
000001101000011001
000000001000100011
000101000101000011
000100101110011101
111000000001010111
000001100010111001
000100001010100111
111100001111100100
111010000011100000
111010111011110000
111100011100000010
000001001011111001
111100001100000111
000101011101110100
111110001010011111
111011010111010001
111110110000101100
000010100110000010
001001111100010000
111110000001010001
111111001000001010
111010011111010011
111111110100100000
111101110111010010
000010101101111111
000011101100011101
000010011000011010
000110000011010100
000010100100101011
000000011101100000
000100000100011001
000010000101110000
111011000001010010
111101011100110011
000011000011110110
000000010110111101
000010001000110101
111110010101110001
000000100010011011
000110000100111001
000000110110000101
111010110011110011
000011010111001010
111111001000011000
111101111101100001
110111010100110101
000101101111101000
001010010001001010
111101000111000100
000000010111100100
001001001011110110
000000011011111101
111011010000000111
111100001000100101
111010001101011100
111111101110011011
111111110010100000
111101100111101000
000000000010010001
111110010001010010
111100111110101101
001011010010111000
111100011111000001
000001011011101100
000011110001110101
000110001011011000
111001111011111101
000000010000110100
000001010010101011
111011111011001010
111110100110101000
000000111011110011
111000101011101110
111001001001111101
111110101100001000
000010101010111010
000011111011110101
000010010101000010
000010011001110000
111110110000100000
000011010001011101
111111110000001011
001001111101100100
111100101110111011
111101100000001101
111110010100000000
000000111010110101
111111110010000101
111111110111110101
000100000101011101
000011001010110000
000111010101111010
000001101101100000
000001111001101000
000001101110011110
000110110100010001
111101001101110101
111101010001101010
000000000100000111
111110001110101111
000010011011001100
000101000110100001
000010101100000100
000100101111010101
111100100011000000
111011111110001100
000001001000001011
000001000101010100
000101000110101101
000010001001100100
001101010011011011
000011001110101111
111110100111001111
000010111010000000
001010000010111110
000001010100001101
000000000101011110
000011011010100111
110111110011110011
111101111010001001
000001001001111110
000010111000100101
000000011111111010
111001101001100010
111111100111000100
111100111011101111
111101111000010100
000001001000101000
111010001010011000
111101111001000001
111111011101010111
000011001001011101
