11110100110011000110000001010101
11110111000101000110110110000001
11001001100100100000100000100001
11000000001001100100001000001001
00000011110110010011001100101101
00101001111010010111001000011001
00011011101001001011111000100101
10111011001001001100111000101010
00111011110011100000000110111011
11111101110111101111110110100001
11100101110000100100001001100101
00000110001010100110111110111111
11010100110110000111010011101001
00000001001010101111101110011111
11010110010100110001010010110001
11111000101101010100110110100110
00110001100110011000001011001100
00001100100101100110001010011101
10001100100010100000000101101100
11011101011001001010000011000010
11000110000100101110111000100111
00000110111101001010100110110010
00001101010101000101010100011111
11000001100001011011101101110101
10101010111110101010011000010010
00101100101111101010001011100100
00001110111011010011110111101010
11100011001000111011110000110100
01000100111000001000110111101011
00100011001111000101110011000101
11111110000000100010110010110101
00011000110000011110011000101100
00010001101001010110011000111110
10011010110000100001100100011001
00001100001011110101111111101110
10100111111010110000010010001000
00101111111001111110011000101101
00000011001001100000011110111010
11101110100000011011101000001010
11111101010110010000110111000101
00111001010011001111000111001100
00001010000101010100111000011000
10111101110101010101100110000100
11111101101111111110001000001010
00010101100101100011000001000010
11100000000110111111100001010100
11010110110100010101000101010110
00001000111011100000011110010100
11110010101011000111111111011010
00010111111101011000000011101110
00000011110101101001010101100000
00010100110011111010100110100001
11111011000011100101100011011111
00010011111111110111010111011100
11110001000101000101010101110101
11111010011100001001111101100011
00010101010000111010110011000000
00000001001011100001111101100000
11111011100010100010010101101000
00110101000111111001101101111011
11110100111010001000011000111100
00000011001001111111000110000011
00000110101110111100110011000001
00101001000110001110101010111100
11111100001010111011110111101001
11110111100110110100110000101110
00010011110000110110010010100001
11111100001110111001011010010000
11001010101011101110110101100100
00000001100011011000001011110110
00100000110111100010001101011101
00000100011000110011100000100111
11100011101111011010011010101110
11011110010011110101001101101110
11110101000110101010000010001010
00000000110111111000111011011111
00011011100110000001101111010111
11010100100010010110000100110101
10101011100000100111110001100110
11101010000111000000000010101001
11100100010110001111000001010001
11100000001111100000110000001100
10110010011100110100100111000101
00000000010010101000100111010111
11001100100111001001000011100000
00011011111110101110100011100100
01000101111000011111011100010001
11100100011011101100101010010010
11100101011011000111100110101010
00001110100101110111100101011000
11111111000000011011100011111001
00000111110010110011101100001101
11110011000011010011111101011011
11011111111101010011000100001110
11001110110000011010010110001100
11110111100000000110110101111000
11000111100111110001110110000110
10111001110010110100001100101010
10110011001001001011100001010101
11011010110001100110101000100100
11111111101000000111100010101101
11110011101110010011101100100000
11101010000001111000001000001000
00010111110000001011001110000110
11101100100010100011110010100010
11110101010001111100110101011110
11010011010011001110111001001101
10111010111010000110101011010100
00011101111001110101011010101100
00101110010010100110010001010000
11110001100100110110000010001111
11100000001011000010000011110101
00000001010001010011011010011110
00000111101010010100101100100101
00111000101001000000001100101000
00010010110100000101100101010010
11001000001010011000000010110011
00010011111010111000011000010100
00111111000110000111010000110101
11011110110100101100100101111110
00000000001100000100001010010111
00000010110000001001101011001110
11010111111101011000100111110101
00100010110011001101001110010101
00101010000010111001110101111011
00010100110110101001100100101011
11011001011110101101111000011011
11110110100001110110001110010110
11101101000001111100011001011110
00010101110110010011000111111110
11110000011101110101001001101010
01000011100000111011111100000011
00010000011100111100110100011110
11111010100101111101101101010011
00111001101000001010011011010011
00011000100110010001001101101111
11111010010100100111110111110101
10010001100100001010111110000100
11101101011010010010111111111010
00100000101011001110100100101100
11110100010110000111010111010001
00110100100001100101001001000110
11110000101101110010000110101110
11100101010011000111000100101110
11101111101101010010111101110001
00000111100110110001010101000100
10101000100111110001001010111111
00110011010111110000010100011010
11000100010001011101000011000101
00000110111011111010000011011010
00000100001111110000000101111101
11011001010010111011101010111110
11000001100101000101101111110001
00000001110100000100010111000101
11110100000111110001000010001001
00100011000011110100100001110000
11011111111001001001111110000101
11010101011100000110001111110101
11100100010101110100011010011101
00011110101100001011000010001010
11111101111000010111110100100000
10110101001100101000001101011110
10101000011011110111010111111000
11011010000011010000100001010000
11111101100001000110011010110001
11101101111001010010101011000110
11010101000111100111111110101001
00001101001010111011001100111100
00000100001111110111001101101001
11001010001010001010100101111101
00001111001111111111010010010011
11010001000101011011111011011110
00000010101100110010011011111110
01000000010101101011011010101101
00010001100111010011001101010001
11110111010110100111010000111100
00100101011101000001011110000011
00000101110000011111101011111011
00011110010000010001110111100111
10111110101111100101011011001000
11111100010010000000011101001110
00010000100000011001010000000011
11100101111101000110001110010101
00000000011011011011010111000000
00110010011000011001101111101001
11010010001110001000010001001111
00001001000111001111010100101111
11111101010001011100011010001110
00101011011111110111111111100101
11101010110000001010100111000010
11011010110111010001001001101110
00110100001010101010100100101100
11101100010000111011100010011101
00000110110000111001101100000111
00001111110101000001101001000000
00001001011011000011010111010001
00000110100111101010111110011010
00001101011110110010000100111011
00000000011010111110111000101101
11100000000100101100111101101111
11101101111010001000010000100011
00001011001011101110101101010101
00010000001110000001010011100101
00010101101010001001101001011010
11100101111100101100001110101001
11101110111001010111011101001011
11110101010101010001111011010010
11110110100100110010110110011000
00011111011111110010011010001111
00000011110010001001111110001111
11001101110111011110001111111011
11100010110011001000100111001101
11010001111110110010000010000000
11110101000001001111101110010001
00010100000101110110001011101101
11110010000000001000100101101100
11100000010111010000111000011010
00110101010101001011111000110111
00001011111001110100111110000111
11001111111001111001010110001011
11101100101111011000001000101000
11111110011010111000010100111011
11001000100011000010000000001101
11101101101101010011101111010010
11111101100111011111101101110000
11111100110011101010011100101000
10111101001100110100101000111000
11000111001001001000001000000101
00001101110100000001101101010010
11000001111001110100110100110111
11001111000010001000000111010100
01001100110111000101100000111111
11101100000010000100101100101100
11100111010111010010001101111010
11010010111110101111001011000111
10011101111010110100101110001011
11111010110010010001100100000101
11010111111110100000110110001010
00001101100100010100101110111100
11110000010001010001111011111001
11100001110001000101000000100001
00010011101010110100000110100010
00100110110001111100000001101101
11101110000101111011011110110000
11011100100110000011110010101010
00010111111010111100010011000010
11100100000100100000000001100000
11100011110101101011001110011000
11111110100011000000000011101010
11001111101000100011110011011111
10110000111011001110101010110000
10111001000110111111011110000111
00000000101001101011100011000000
00001011101001100010111000000101
11101001000000101000110010010001
11011101110011111111111111111110
00000101110111011100100110101111
11110101100011111010001100011001
00010110100011000111011011000110
11110110101000111100110100100001
00001011000100000000000000000111
01001110100110100010110110000011
00010111110011011010101110010111
11011001011001000011000111001101
00110110100101000101010011110010
11100110010100100011111111011000
11011111001111010000110101011000
00000101001000000110000111011110
00011010001101001010001010010001
00010011011100001111101111101110
11000001000100110001111001011001
00011110010111000100011111111010
11110110110101001110101110000000
00000100110000001001001111010101
11101110010001011001111111001111
00110011001101110001000001111010
11000010010001010110001110010110
11111111000010000101111100011000
00000110101101010101111110100110
11101100000001000110001111100011
11010100111001011000001100110110
00100101110101011100110110001100
11100110001011100010001111010010
11111010011001101110101010101011
00001011100010100110011010111000
00010001101000011101110000100000
00100000110010011110001101110100
11010111110100011101000110001000
11101100111110011001100000111010
11011101110111001100000101000000
11011011000111000000011110011010
11010010101001001111000101010111
00011101100110101000101110000010
00001000010101111100001110101110
11101111100100010110010101111111
00001101001110111100000000101110
11011011010111011101111000010100
11110010010000000001000001000010
11010111110011110111000011011011
10101100000110101001011001100111
11011110101000011011101000110010
11100001010001001000111000100011
11100001000100001101100000100101
11110011100001011101101101101111
11010011110000101100000111001001
00001011100100000111011011100010
11101110100011011001010111111111
11110110100000000011101110010111
11111110101010010101101111011100
00000110010001000010010011001011
00011101100000001110001001001110
11110001000001011100010101100011
11000101110100111111001001011110
00001100101101000010111100101011
11011101110000011001100010110110
11101110100110101010100110001011
00001000011100101101101000110011
11101001000111011011110110000101
00000001000000100011111101001001
11011111100001001100010110000001
00101000101001100010010101001001
11001000110111110101111001100100
11110010101000101110001111000010
00101011011101110101110100010110
00011111010010100101100010011100
00101100110000001011001110000011
00010001110110000101000011001111
00000010110101011001111001001001
00011010110010010000000011110101
11101101001100110010010111110010
00111000001100011000101111111011
00001101100110101001111001010110
11110101011111001000010100010111
11001101011110011000110101001010
11011001000110011110000100011111
00100000011001000100001101010110
11100011101101001101000000111010
11100100110101100111001000001001
11011011101111010100011100011100
00101010101110001010111000001111
11001110100011010010011111100000
11101101101110100000000010010000
00001110110011110000010010110010
10011010011010110101111010111110
10111111110100010010010100000111
00110000101010100010000111000110
11011001010101101010100101011010
10111110011010010000011011000001
00100110010101100001011100110101
00011110100110001010100111110000
11100010001001110101001001010101
00001100100000010001110110000100
11001110000000011101101010001000
11110000100000001101011101010100
11100001101010101111100111011011
10100011111111001001110100001001
00011010101111110010110010101101
00011001011001110001110100010011
11011010111101101111001011011011
00010011111100010001110000100010
11100010111101100010011000000100
00011110111001000110110011001010
11111110111100001001101110001101
11001100101010000011001111101010
11011100111100000011011110100101
00001000100111000010101011111101
11110100001111010100100110000110
00000000001111010011101000111101
01001000011011011001110101101111
00011001110110110001011110100110
00101100000010101001110011101111
11111010110101100100111000110110
11111011110011000110000110110110
11101100101010011000110100111000
00010010110111001010111100100000
11101010101000101100111000111010
00001100110000010110100010010010
10111011111110000000100110110110
11100110001110000110001010001110
11110110111111011101011000001111
11011000001111111001011100011011
00000001111011111111000001100101
01011011010001010101011111001100
00100101100100101111011110000100
00001110001010000000010011011101
00100010001100100001111100000011
01000111011001010111011011100110
00100101100100011000111100001110
11100111010011011101100010011011
01010101111110001011010101011110
00010110110001001011101010001010
00010000111010101100100010010011
10101100000111010101111011110101
00011011100110100001101100110111
00110100111011101110001001100010
00100100011110100011100011100110
11100010000101010011100110101000
00010100100001110000001101110011
10101101110111000000110101010010
00000101001011000101010100110111
00010011110110111100001000011100
11011011111000000101100010011000
00000000010110011100101110111011
00001100000001001001110101000100
11111010000011111101101101111101
00000101110000101010111000101000
11000100110110011111011111111100
10110101100010010100100000010111
11110100101011111110000101101000
00111011000001101010001100001001
00100111000010111000111111100000
10101000010100011101000000011111
11101110011110011101011111011111
00100110001011011010001010111000
00011110000100101000000100000000
00010011000110001010010100101101
11111100100101011110100000011110
11000101010001000111010111000111
11001100110111111001111101011010
11111100111111110000011100110101
00000010011100001110110000001010
11110001000010011111011001101100
11011001011101101000100110101101
11111010001000101101001010001100
11001000010010011000010011001101
11110010100010111011100011001101
10111011001011110110000101011000
11111000001101101100111011001110
00100111101010110110101001100011
00000110101000011000101010101100
11010011011001001000001010100011
11111010011110111011110100101011
00111110110110101101011010010100
00010000100001000001110011100110
11111111111011001010010110111001
00110001000100101000000111010110
00001001011001011111000010101100
11111000001100100001101100101000
11011011111111011100010000011010
00011101010011011001110001100001
11101101010000111000000100100000
01010010111110111110000010111010
00010011011111101011100100111010
00011010101011010100010000001110
00001110001101001000111111010110
00000100011100010100111001100011
11101001101011110101110111100111
11100011001101010111101101111111
