00000000100101010000001111010011
10110010111110001000110010100001
10110010000111010000001100001110
00101101101001100010001010001101
01011110001101011000011011111001
00100001000110101100110011100110
11100011011100110111101011001001
00110101101000111000100101100000
01100000101010100110000111011010
01100011100011101100001100011000
11111000001101001010111110010000
10000101110110000000100111110000
01001101001110101011111111100100
11100000111001011110010011110110
00000001010010001010100111001010
01111111111111111111111111111111
11110001011111011001110001001111
11100001011110011101101010101001
10101111000001001000111001010001
10010101011001110011100100111010
10000000000000000000000000000000
11001011011000111000110001111100
11011110000100011001001110011000
10011100000000100110011101111110
11000110111001010111101111011111
11111101111001000011000111100100
00100100110101101111111101111000
10000000000000000000000000000000
00111110001100001101111011110101
00100011011001001111001010100101
11001010001101100100000001001110
10101011000101000010000111100011
11101010001011000101001111010110
10000000000000000000000000000000
10000000000000000000000000000000
11011101001111000100001000001001
01110101011110110010011010011000
10110000011010010100101111011011
10001001010010001101110110100111
00010010100000001100011010001010
00101001010000100110111111110010
11001001011011100101010001101001
11001111110000111110111110001100
10000000000000000000000000000000
01111110000101011000110010111100
00001000100110000110011101101101
00010001110001111110110001010010
11110010110010000011110011001000
01000110101010110101101010111011
00101101011111111000010010001100
11011101111101011000011111010000
01101110011100001011111100001101
10111100010110010110100010111110
11011110010110001001110100101010
11101001101010001001001010110010
11100111001001101110011101111110
01111111111111111111111111111111
00110011100000100010011101100011
11011100101101101001010001011000
01110100010111110011101101110000
00000100000010000000010110000100
10000000000000000000000000000000
01110111100000110110101110001101
11000110001011000101011011010000
01001110100110100011111111101000
11011100001101100111111001001010
10010100110101001111100110100011
01110110110110100110111011010001
00011101001001110100110000010101
00111000101110110010001011101101
10110111001100000001111111011001
01111111111111111111111111111111
01111101111100111111100000110011
00001000100000101101101110001110
01000110100110001001010110100100
00110111011011001111101000011101
00110110101110100001101110100101
11100111101110110101111000101011
00000010010011111111000000110000
01111111111111111111111111111111
00100010000000001001011100010001
11101010001001011000000101000100
11000010111111011011111011100010
10000100101111110010010110001101
10000000000000000000000000000000
10000000000000000000000000000000
01000111000100100111000000001101
10110011011111100111100111001100
11100011000000100000000011011110
00011010010100101000100001110100
11000000010010000111101100011010
10000000000000000000000000000000
01101000101101001011110110010000
11111110010010101001010111010000
00000101011100010011100011011111
10100011110011000000110111111110
11111001010000001110011101000110
10000000000000000000000000000000
10000000000000000000000000000000
00100101010101100101001011010100
01010100111110011110000101011101
00111001111101111010110010110110
10011110111000011111000001100000
00101011110011110111110011010010
01011110010010110111010011101111
11011010101001011110010010111001
10110011110111010001001000110110
11011011110100100001101001110100
01000111001011011000101000011100
11000010010000000101000111000111
00111100111000100111100111100101
00110011010001110010000001111011
11101011101010000000001011000011
11010010011000101011110101100110
01001100000010110110000011110100
01111111111111111111111111111111
10001011001110001011011100000101
11101011111011110111111010111000
11000100010101011110111001011111
11101010101011000101011011010100
01100111100110101000111001110101
10111010000000100010111010001100
01110000001010110110001101100000
00100111100001101101000001000110
00000000011001110011000111101001
00011000111010100011101001111010
00100111001101000110111111001100
11111011000000110001010010100110
00110010001010010110001001011010
11110001100011011010000101110110
11011101010100110110101100010111
01001110000011010110011001000010
01001001001100000010010011011000
11110110101110010011010110010000
01000111000010010010010101110101
00000101001000101000001100110111
01111111111111111111111111111111
01101011100001000110011111001000
11111000011010101011001011100111
11101011110100001100011010111100
11010100101111101100001101111100
11111110111100011000011111010010
11011001101000011100010000101110
01111111111111111111111111111111
00110110011101010010100111000100
00000110111110101100010011110011
10011100101000010010100100000010
10101100010110000111001110011100
10000000000000000000000000000000
00000110101110110101000001000001
11001100001010010100111001001000
10010001100011110001101110001100
11111010101010001011100000011100
00011100101111110001000110000110
00001001000010000111011011100111
11011001000101010011001011001000
00101101000110000110011101110001
11010100000110000010010101000011
11101000100111010000001111100010
11000111100111101111111000001010
11000011110010111001101000001100
10000000000000000000000000000000
10000000000000000000000000000000
10011011011100010010001000111011
01111111111111111111111111111111
00101101000001000010000010001011
10110011110100000110001101000101
10000101000000101101000101000010
00111011000111100001000010000100
11110001011001010100100100011000
00111010011110100111011010001000
01000111101100011001011010001100
01010011100101000100111111100001
00000010110001111101101100011011
11101011110111110111000111101110
00000101010000011011100001101011
01111111111111111111111111111111
10011100001001101111000000100110
10110100101110101111000101000110
01110000010001010000000001010110
11000001101100000010101101110001
00101110010000010011111000111111
01001001001010001011100110000000
00010011110000110000010000101111
01111111111111111111111111111111
10000000000000000000000000000000
01111111111111111111111111111111
01111000000010100001000100000010
00010111101001110010000010000100
11000011011000010101111100011011
00010111110111100101100001001110
10111010111110100101110100110110
11101101101111110101010000010101
11110110011000010010110110001011
11000001111111100000101001010011
00101100100000101101001000000100
01011010011100111010001000100111
00011111111111000110110110101110
11101010100101001010001110000110
11111010000010000101100010011000
00101100101101010111001100110010
01100111111100110001101101000011
00101100010101101000100001110111
11101000110011110100101111010011
10111101010110110100000110110110
10001111000010001001100110111100
00001110010100100110110111011011
01111111111111111111111111111111
00010111101110000010000100000011
11000101110010000001100000110110
11100000010111010100110010000001
10000000000000000000000000000000
10000000000000000000000000000000
10101110101101101001011111011000
00100000001010011000100101101111
10001011110011010001011111110110
00001101001101101010100000111000
01111111111111111111111111111111
11101110010110100110010100010111
10000000000000000000000000000000
00011001011011111101110001011001
11111001110111001010010000100111
11111110010101100010101110010011
00010101010110001011000110101111
11111110011110101110111011110010
10001101101111001000111011011001
10000000000000000000000000000000
10000111010011110011111110100001
01010011100010010001111100100000
01010001111101011000100011001011
10010000100111100001111000011000
11000110010111011111001001110101
11111011110100100101001101001011
11010010101011001100111100011110
10101111111000010010101001000010
00010100101111110101111010111100
00101100101000010110011111000110
10000000000000000000000000000000
00001100011101010110001010100001
00001001111101101100111100001110
01000100011101101010101010111100
11110000110000000000100000011111
00100010111110111001100010101011
01111111111111111111111111111111
10100000100110110110011100110111
11101001001101100111111100100110
00111110010001101000000100011110
11000011001011101111110111000100
01111111111111111111111111111111
10110011110001101000111111000101
01011110010010101011011110111000
10001011101110110000000000111101
00100001000011000011000000001100
00001011111010110110001000000000
11100001010001100010000001100110
11001110011001100001101000000110
00010011100111110001100100001100
10100110101000101001110110111011
11010111101001011100001010110110
00010111110000111101100010110101
01111111111111111111111111111111
00101000001000010000000100110110
11011100011100100011100001111110
11011101110111000101101100010101
11111111101010011110000101111110
00110111100010011100010010001100
01000111111110100110010100011100
11110101011110000111101000111111
00101001101101000000110101110001
11000100110010011111001101000111
11001000010111011110001000000001
01110100110010010000000100000111
01011000110000110010111011000011
11011100101001011110111010100100
11011000111111010011110110110010
10110110011100000111010111000111
11000110101010100000010110011010
10011110001100100001011000110001
00000111011010000010010010011101
10100111011010001001010100110110
00101100110000111111001101000111
01111111111111111111111111111111
11001001011001001111110110110010
10000000000000000000000000000000
00000100010011000101001010011000
00101011110011110110011100011010
11000011001101000011101100100100
00001001011100100000000111100001
11011110100110110001111111011001
10010011010100101000000000111010
10011100000001111101010101110010
10000000000000000000000000000000
11110110100111100001010011101111
11001110111011110010010010001110
00001010001110000010110110100111
00101101010101110011000010011011
00011000011000101100000100110100
10101111011110010100110001110011
11001001000011001001000010111010
11011101110101000010000111101100
01111111111111111111111111111111
11110000111110011100110000110001
11100110100001011100000100000000
11111101001000001101010001011111
01111111111111111111111111111111
11001011111110001010100000100111
11011101101100001100101111001110
01111111111111111111111111111111
11010101010101001110101000111110
11110000110111010111111011100110
00101000010111011010110111100100
10110011011101011011101100101001
01111111111111111111111111111111
11100001001010011011011011011101
01010000000001010000110000100001
00101001010101101110010101110101
10110010111000001101100001001011
11100011011110111010001101000110
11100100011101111000111011110110
10111010101110101100010001011100
11001111111111001000111011011100
00011111111110011000001001100100
00001010001101100100000010000001
01111111111111111111111111111111
00010111101110100001001110111010
01011011000101100111100001001001
00000001100000011100110110101010
11001011110100010100000001001000
11111101111101101011110111100000
01111111111111111111111111111111
01000000110101101111000110010001
00010111000001111000101011010111
01010101011111001110010111010010
10001000000110000011111101100001
00001010101100010011110101110111
01111111111111111111111111111111
00110110100101110000000010111010
11010111101101001101110001001011
10011010101101110011001010001111
10101110111111010111110011100101
10001111111101001110011010000111
10111011011100000101010110011001
11111001110100111100111011101000
10111111000111101011111100111011
11011110111100100101100001110000
01001110100110011010011001101010
10111010011010000100001110110011
10000011100001110010110010000011
01001100110111010101001010010111
11000001000011110110010101011111
11100001110100010101111100101011
00001100000101110001000011011000
10110010100011110011000110110000
10000000000000000000000000000000
10000000000000000000000000000000
10000000000000000000000000000000
01110110110000000100000001001100
00010100100000010100110001110110
10100001011100101001111110010110
00011000001011000110001011000011
10110011000001111100100001111001
11111100100100000001010101110001
10100011000000101100100011110101
01101000011111011000101111100011
00111100100001110011000101011111
11010110110000110100000010000001
00100010100001010100011110100010
00101100001010001110011110010110
00001011011010111101010001100110
00000101010001111100101011100001
01001011011001000100100011101100
01111001001101000110100101010011
10111100101010100110110010100000
00011110010110101011001000010111
11100000011101110001011110010010
11010011110011100001110110001110
01111111111111111111111111111111
11010100110111011101011010110101
01110100011101101000110011111100
01010111110101100010110011100111
11110000001011101011100111100110
10110001000110001001100110011100
00101010010000110000011010111100
00100101000000010111011110011100
00011101100110111111110000001001
00110011110010010111101101100110
11001111110111000100101101101011
00110000001101001011000000100011
00111000101100001111110110001101
00111110110011000111001001111100
11101110111100011000011110101000
11101100111011100011001100101000
01111000110100100110100010111011
01111111111111111111111111111111
00110001100100101110001111010111
11100011110001001010011010100111
11101001011011101111000110011000
10000000000000000000000000000000
11010000111111100011101010011000
01111111111111111111111111111111
01100110100111101011001011111110
10101101000100110010011001111100
00011111110111111101010000000011
10110110100010000001110110101111
10000110110011010111110010000010
00100101101100001101011110001100
10011100111000001010111100111101
10000000111000111110000010001000
10001101101001010110000010101100
01110000000111111001100111001001
10000000000000000000000000000000
10000000000000000000000000000000
01010010001000000000100100111100
00010011001011011111100101100100
10110111101010100000101000000100
11100010101001100101011111000101
00010111011000010110100101101010
10010111000010101000110011100000
00100110110000111100011000010010
10100010000100011000111100111010
01111111111111111111111111111111
01011110101001011110010011110011
11111101010100001111010011010101
11101111010001011111110101100010
00100010010101110010111110101011
11000001110101001010100010101000
10000111100100110111101001001011
00010010110011110111100101110011
01010110111101010111000111010011
00011110101100000011101000110000
10001111110111010111111100000001
00010101100010001101111101111000
01111111111111111111111111111111
10011111000100001110100011100110
00011101100101100010011010111010
01010110010011110011100010011101
10000000000000000000000000000000
10010101000000011100111000100000
00001110011111011011110011001110
01011000010011100101111100100000
00100001011101011011110100100010
11001111100100011111011111001000
00100010100010101001001010000001
01110100000010100011011001101101
11101110101000011100101100010001
10110000001100110011001110011011
11100111100110000101001101000011
00001010101001101100000101110001
