111110100110011001
111110111000101001
111001001100100101
111000000001001101
000000011110110010
000101001111010010
000011011101001001
110111011001001010
000111011110011100
111111101110111110
111100101110000101
000000110001010100
111010100110110001
000000001001010101
111010110010100111
111111000101101011
000110001100110011
000001100100101100
110001100100010101
111011101011001010
111000110000100110
000000110111101001
000001101010101000
111000001100001100
110101010111110110
000101100101111101
000001110111011010
111100011001001000
001000100111000001
000100011001111000
111111110000000101
000011000110000011
000010001101001010
110011010110000101
000001100001011110
110100111111010111
000101111111001111
000000011001001100
111101110100000100
111111101010110011
000111001010011001
000001010000101010
110111101110101011
111111101110000000
000010101100101100
111100000000111000
111010110110100011
000001000111011100
111110010101011001
000010111111101011
000000011110101101
000010100110011111
111111011000011101
000010011111111110
111110001000101001
111111010011100010
000010101010000111
000000001001011100
111111011100010101
000110101000111111
111110100111010010
000000011001001111
000000110101110111
000101001000110001
111111100001011000
111110111100110111
000010011110000110
111111100001111000
111001010101011110
000000001100011011
000100000110111100
000000100011000110
111100011101111100
111011110010011111
111110101000110110
000000000110111111
000011011100110000
111010100100010011
110101011100000101
111101010000111001
111100100010110010
111100000001111101
110110010011100111
000000000010010101
111001100100111010
000011011111110101
001000101111000011
111100100011011110
111100101011011001
000001110100101110
111111111000000100
000000111110010110
111110011000011011
111011111111101011
111001110110000100
111110111100000001
111000111100111111
110111001110010111
110110011001001010
111011010110001101
111111111101000001
111110011101110011
111101010000010000
000010111110000001
111101100100010101
111110101010010000
111010011010011010
110111010111010001
000011101111001110
000101110010010100
111110001100100111
111100000001011001
000000001010001010
000000111101010010
000111000101001000
000010010110100000
111001000001010100
000010011111010111
000111111000110000
111011110110100110
000000000001100000
000000010110000001
111010111111101100
000100010110011001
000101010000010111
000010100110110101
111011001011110110
111110110100001111
111101101000010000
000010101110110010
111110000011101111
001000011100000111
000010000011100111
111111010100110000
000111001101000001
000011000100110010
111111010010100101
110010001100100010
111101101011010011
000100000101011001
111110100010110001
000110100100001100
111110000101101111
111100101010011001
111101111101101011
000000111100110110
110101000100111111
000110011010111110
111000100010001100
000000110111011111
000000100001111110
111011001010011000
111000001100101001
000000001110100000
111110100000111111
000100011000011110
111011111111001010
111010101011100001
111100100010101111
000011110101100001
111111101111000011
110110101001100110
110101000011011111
111011010000011011
111111101100001001
111101101111001011
111010101000111101
000001101001010111
000000100001111110
111001010001010010
000001111001111111
111010001000101100
000000010101100110
001000000010101101
000010001100111010
111110111010110101
000100101011101000
000000101110000011
000011110010000010
110111110101111101
111111100010010001
000010000100000011
111100101111101001
000000000011011011
000110010011000011
111010010001110010
000001001000111001
111111101010001100
000101011011111110
111101010110000010
111011010110111011
000110100001010101
111101100010001000
000000110110000111
000001111110101000
000001001011011000
000000110100111101
000001101011110110
000000000011010111
111100000000100110
111101101111010010
000001011001011101
000010000001110000
000010101101010001
111100101111100110
111101110111001011
111110101010101011
111110110100100111
000011111011111110
000000011110010001
111001101110111100
111100010110011010
111010001111110111
111110101000001010
000010100000101110
111110010000000010
111100000010111011
000110101010101001
000001011111001110
111001111111010000
111101100101111100
111111110011011000
111001000100011001
111101101101101011
111111101100111100
111111100110011110
110111101001100111
111000111001001010
000001101110100000
111000001111001111
111001111000010010
001001100110111000
111101100000010001
111100111010111011
111010010111110110
110011101111010111
111111010110010011
111010111111110101
000001101100100010
111110000010001011
111100001110001001
000010011101010110
000100110110001111
111101110000110000
111011100100110001
000010111111010111
111100100000100101
111100011110101110
111111110100011001
111001111101000101
110110000111011010
110111001000111000
000000000101001101
000001011101001100
111101001000000110
111011101110100000
000000101110111011
111110101100100000
000010110100011000
111110110101001000
000001011000100000
001001110100110100
000010111110011011
111011001011001001
000110110100101000
111100110010100101
111011111001111011
000000101001000000
000011010001101001
000010011011100001
111000001000100111
000011110010111000
111110110110101010
000000100110000001
111101110010001100
000110011001101110
111000010010001011
111111111000010001
000000110101101010
111101100000001001
111010100111001100
000100101110101011
111100110001011101
111111010011001110
000001011100010100
000010001101000011
000100000110010011
111010111110100100
111101100111110100
111011101110111010
111011011000111001
111010010101001010
000011101100110101
000001000010101111
111101111100100011
000001101001110111
111011011010111100
111110010010000001
111010111110011111
110101100000110110
111011110101000100
111100001010001010
111100001000100010
111110011100001100
111010011110000110
000001011100100000
111101110100011100
111110110100000001
111111110101010011
000000110010001000
000011101100000001
111110001000001100
111000101110101000
000001100101101000
111011101110000100
111101110100110110
000001000011100101
111101001000111100
000000001000000100
111011111100001010
000101000101001100
111001000110111111
111110010101000110
000101011011101110
000011111010010100
000101100110000001
000010001110110000
000000010110101011
000011010110010010
111101101001100111
000111000001100011
000001101100110101
111110101011111010
111001101011110100
111011001000110100
000100000011001000
111100011101101010
111100100110101101
111011011101111011
000101010101110001
111001110100011011
111101101101110101
000001110110011110
110011010011010111
110111111110100011
000110000101010100
111011001010101110
110111110011010011
000100110010101100
000011110100110001
111100010001001111
000001100100000010
111001110000000100
111110000100000010
111100001101010110
110100011111111010
000011010101111110
000011001011001110
111011010111101110
000010011111100010
111100010111101101
000011110111001000
111111110111100010
111001100101010001
111011100111100001
000001000100111000
111110100001111011
000000000001111010
001001000011011011
000011001110110110
000101100000010101
111111010110101101
111111011110011001
111101100101010100
000010010110111001
111101010101000110
000001100110000010
110111011111110001
111100110001110001
111110110111111100
111011000010000000
000000001111011111
001011011010001010
000100101100100101
000001110001010000
000100010001100100
001000111011001010
000100101100100011
111100111010011100
001010101111110001
000010110110001001
000010000111010101
110101100000111011
000011011100110100
000110100111011101
000100100011110100
111100010000101011
000010100100001110
110101101110111001
000000101001011000
000010011110110111
111011011111000001
000000000010110011
000001100000001001
111111010000100000
000000101110000101
111000100110110100
110110101100010011
111110100101100000
000111011000001101
000100111000010111
110101000010100100
111101110011110100
000100110001011011
000011110000100101
000010011000110001
111111100100101100
111000101010001001
111001100111000000
111111100111111111
000000010011100001
111110001000010100
111011001011101110
111111010001000110
111001000010010100
111110010100011000
110111011001011111
111111000001101110
000100111101010110
000000110101000011
111010011011001010
111111010011111000
000111110110110101
000010000100001000
111111111111011010
000110001000100101
000001001011001011
111111000001100101
111011011111111100
000011101010011011
111101101010001000
001010010111110111
000010011011111101
000011010101011010
000001110001101001
000000100011100010
111101001101011111
111100011001101011
