00000100010100000011111111000110
00101100111000010111110110010101
11101011101000101000001101010101
11011010100110001100101111011010
00010100001001001110001111110101
00001011111110110100010000111000
11111000110011001010011000010010
11110111110000110000111001100111
11110001001101010000101010110010
01010011100111011101001001001001
11100110000110001101101000011010
11011100001000100011011100101101
00000101101110000101110000010010
11001001011101011101001100000110
10110110111000010001101111100001
00101001000011101001111000111101
11111110101101001010111111101001
00110010010111111110001101101000
00011011001010001111100001010010
11101000100011101000001001010001
00100110001100011110000101101001
11010011111011010001100111011011
00011001001110101000010010001111
01010001101111010100000100000101
00110101010111100010011100010011
10111011010100111101110111001000
11101011010010111001110111001000
00001111010101011001101000100111
11110101010001010101001100011001
00010110111011111111111101010111
10111100100011000011100111011001
11011111010000010000111001010101
10011111111001010111001010000110
00000001000111010011101111010111
11111011001001011010011000000101
00001001100111010011111001110011
11011001011000000111001101111111
11111111100111100101111100011011
11100011001101000110001101000100
00010111011001001111101010100100
00010001010100111110010111010101
11010110001001010111011010001100
11010000110101101000010010001110
10101011010100101111000001011100
11100001101101110010101111010011
00100101100111100001111011100010
00011010011001100100000111110101
11110000101110100110100111010000
00010001111010011011010110001000
00001001111001001101110010100011
00100100110111110101011001001001
11101010111111100101111001101001
11111100011110000011100010000100
11101011000110110001000111111000
11100101111010011111100011110100
00001001010000000000001111011100
00011110010010100100101100110110
11101011101100101011101100010010
00011111000110100001000101110111
00010110101110000101111110010010
11001101110110010101001000100100
00011000001011000101111000111100
00011110010001101000111000000011
00001000001000100110110101000010
00000011000001011100111110100101
11000011010011100001001011101100
11111011101001101001001101011100
11111011001001111010011010110100
00111001101101000000001011001101
00001001001001101101111011110011
11000111000101100101010100110110
00101011111101010000000001000101
00101110000101111101000101111100
00100111111100101110111101011101
00011001101010010110101001000100
11011111100001111000111110101110
00001110011101111000110000111100
00100010010011110011011010010100
11010000111000111101000101101110
00111001011100100000110011100111
11001110101100110001001011001110
11110100001110100101010001101101
01110010111101111110111011111110
00010010010011001010100110011010
00011001000010110101111101100011
10101000110000010111000001101111
11010100011000010100100000001011
11100111101111101001000001011110
00000101010100100111011011101111
11111101010111100100001100110100
11001111011010100010001011110001
00010111011111111010101010110011
11010100111010111100010001010100
11111011010011110011011101010100
00011101011010001110001011110111
11110001010000100010100011101000
00000001001000011000110111000010
00100100100100100101000111000111
10111010100000100110001011110100
11111101101100101111101000111111
00111001010001111010000000110110
00000101000111010001010011110111
00100000001011100101110100110100
11011101011101101001010110110011
01011001111010111100100100010001
11011011010110000100011001011111
11000101111010001100110010100101
10111011001001110010011101101011
11011001010010110011111010111100
11101101011011001101110110000111
11001100011101111000110001110111
11101110101111011101001100001111
00000100101000111010110111010001
00000000010011000000010101101101
00111011000000111000111001001011
01101101101100010011101000101001
00110100101110101111101010001000
00011000011001110100011001101100
11101000101111011100000010011011
01001100001100100110101001111011
00011110000110101011101010001111
11111011110111000101110100111000
00110010010010000001110100000110
11101001111011001101001000001011
11111001000011100010001111011101
00000100000011001000011000001010
00101101111000111101111011111100
11010001000001101011111010011101
00000111011010111101101000101011
11001001111010101110010011101010
11100111111111000011111000101000
11010100111101010111111111011101
01001110101001010100000101100011
00010000001010110110010110100101
00100001111110101110011101110001
00011001101011010011011100000011
00100100010010111011111111011100
10111011001110011000110100110100
11010010101000001110110011110100
11100110100001000010001101011100
11010110110111011000101011001100
00001110110110110110110011001010
10000000111111011011001111111100
00111111100110100111000111011100
11111011010100101110100000000001
00111010001111110101101011111001
01101001010111100110011110101010
11110101011101101110111001011001
01000001011000101100011110101000
00000111010011000100111000111111
11100001101001010110011000101111
00011010111111001110010001011011
00110111011001001100111101100001
00001011110010101101111010001000
11001010001100100111110101011101
11110110011010011000011011110101
11101111001100001010010110101111
00000011000110110101111011111011
00110000101010111110000000111000
11100100001100000001101011001011
10010001011000010011000001110000
00100001100100011011101000001111
11001101010010011001010101010001
00011001101000000011100110010111
00001011110110100111011000100010
00011001000001111010000000000001
00010000001010111001101010001110
11000010101100110111010011011011
01010100000001001010001101001111
11111000110011101000000111110111
11100110101001001010001010111111
10111000111110000011010010011000
00010001010000000101111100111000
00010100001001001011110100000100
11100001110100001001010101010101
00000001110110000000111011100011
00001111000001100100100101011111
00001100101101000000010101011110
11111111101001110000110010001010
00000011011110011000010000111011
00010011110110100100010111111110
11110100110101001011001001000100
00010000011000101110001011101000
01011110001001110001110011001110
00001001100001100110100101001111
11011011101000001001010101000011
00111000100101011011111110011000
00011111110110011100000101111001
00101011110110010111010010000010
00010101001110000011101010111111
00011100011100010111101111000000
11110011001011101000000000001010
00011111011011110001011011001000
11100111101011001110011111110100
11001111110011101000010010101110
11011111101010001001010001000011
00101001111110010000011010001011
00001100011101011101111000100111
00001111000100111100001010010100
00000101101111111011110001010011
00110010100011011100100011110101
11101000001111010001011110111110
11001111111010000010000000001010
00000011011011111110011011010100
10111111100001001001101110001001
00001000111001010000000011111010
10100010010010100010000101001101
11111001011000110111101001001000
00000101100000100010010000100000
00111111111100110111011101111000
00101001010111110010010111111100
00011011000011100001101110111011
00011111011001101100100101100110
11011110110110100001111011001101
11100001010010001000000000110001
00111001010101100011101111001000
00100111110010110100111001110110
11111100110011011011010011101011
00001101111001011110011101100101
00000110100111101010010010000010
11100100001011000011010000100110
00011001110011100000011000110101
00100101011001101100010010011011
11101011100000010111001001011000
00000110000111000001110110110000
11111100010100101100011111111010
00010000111010001001010011001100
11110111011100101010111011001110
11100011001000110011010010110111
00001101010101111101101100100101
11111101101011110001001010110011
00001111001100100000110000111110
00001100001111101000010111110110
00000010101100000111011110111000
10110101101110100010111111010011
10110100010000000011000100000100
11110111001000000000000110001010
11110111111010000101010011001100
10101110100000000110000001111110
00000001111100011100001111111011
01001110101001001101011000111011
11110100000101010001100111010101
00010000110101111001100001100011
00011010101111011000011010111011
00010110100010000010111011011101
11100101100110101001000110100010
00100110101111101101000110011010
00101001100110110110010101101111
00001011111110011101010111111001
11010011100001000010110011011101
01011011111011110110111000000101
11110110010101101111011110111110
00000111000111101001111001001000
11101011100011011100111001010010
00001010110000100111100110000011
10110010101100000111111110101110
11000010111001000001011010100001
11110000110001011100110101000100
00010001000000000111101011010110
11010111101001110010111001011001
01000011111110101101011001110111
00011100100111000010110100000111
11011111001110000111101010110010
11111110111010110000010110001101
11101011010110110011001000100001
11001010001000001001111011101010
11111100000100010100011000111101
11110011001011011001110110011011
00000100000011100000110111001011
00001011100111000100110001000101
10110000000010001110100110100110
11110010101001010110100101110100
11011110001110111011100111111101
00101011001110011111010000000000
00111000111101110110101010010100
11101011011011010101010110000010
00111110111000101111110101100101
11111010000011100001111000010000
11100111000011001100100010110100
11101100100000100000111010110001
00010011111010101100001000010001
10110101010100010001000010101001
10101010111110000000111000110111
00001101111101110010011111000010
11110111100111011110010111100111
00100000101000010011001011111111
00011101110111000110001011010011
11010001000101101000111000000111
11010001101001110111001100011011
00001110011100000010110100101010
00100011010111001011001101011110
11100111101100011100001011111001
11111111110011101110111001001010
00010110011001000011100100001101
00101001010010111000100111010010
00000001010100001111001100011110
00100111011111011000110101011111
00011000001110100000000000010110
00010001011001101010000111011000
10010010100101101100000111011000
11100111101110110111000110100110
11110100111100111000101000000100
00000001111011010001001001011000
00010011000101100110101010000011
00000001000011011101100100101111
11001111001010110110110001100011
00101100110000100100000010111100
00000111110001111010000010111101
11110101010010011100111100100011
00101000011100100100111001011111
00111011101000101111000001000101
00110110110100101010000001011000
00010111111000011110100011000101
11100111000101001010000100011000
01010110011011000001110110001100
10100100110100100001011001111100
11100101010010011011110101110010
00001010000000110101011110111101
11000001000111101111000011001001
11100100011111111001000101110101
00101101100101011001011000000100
00010001011000111110001101001001
11000010100011010101011100100100
00001010010010011101000011100010
00011111111010011001000011001110
00000110111000011110110001100010
00001111111001001001000110100000
11111001101011001001100011001110
00110011101001010000111001111001
11000010111011011001100011110010
11100111101001100100010011011010
00010111101000001110001111011010
00001100110111000000110000111111
11111010011101010110111000110100
11001101101111011000110111000110
00000110000100101010011111100001
00001110011101100010100001000100
01001000010011011001111011011010
00100011100110011001000101100000
11110011101011001000000001111010
11110110001110001101111111000101
11110011110000001111001011110110
11100111000010001000000001111011
11111110110110011100001001000011
00001011000100001110001111111011
11100001010010110000101110100111
11101111000001001100111110010100
00101101100110100000000101001011
00001011101101000011011110101101
00000011101010101101001010110100
11101101100100111010011001010001
11101110100101001110001110011011
00100011101010100101101101010101
00001110111000010110100110100110
00100110100111010100001110111100
00001111111101101010001001101111
11110010100000001000110100111011
00101010010000100100101101101001
11111111100101000101001111100011
11110000110110111110000101111001
01000110110111001010100010111011
01010011110011011101001111010011
11000111010000011010100001110101
10100101100111110101100011011010
00100001101111001000100110101011
00000001000111010111000101101111
10100011001010100010101010000110
11110111110100111110111100101100
11111111101001000011100001010000
00001100000000111111010101011001
00011011111111000111111011000110
11001110111101000101001100010000
00000011101111001101100001110110
00101010011011011011010100100011
00000010111001111111111001101100
00101101111011010001010111111111
00010100111111110100110011010010
11001101001001110010010010111100
00101011110000010111011010000101
11110101001111110110011110111100
11110101111000100010001000000001
10101101010100110000110110101101
00010110001011011100101000010111
11000001000000011110011000011000
11111011000100101101010011010100
00001011011011011010111001011010
11110011101100001111100010000000
11000101111100111101110101000010
01011010000011000110011000110010
00010000101001010111110000111010
11111111000100111001101101001101
11100000100011011100010010101011
00011010111100010110011010101100
11100110110011010100110101100011
10110010000111111110111100010111
11100000010111001111000100001010
00000101001101101101011111110001
11110100000100101100101000110111
10110111111010001000010001111110
00101100011100000111011000001110
00001101001011110111000100111100
00010010100100011001101111000011
00010011010000100111011100011111
11111000011111000000010001100110
00010101010010000110101000110101
11010100110000010001111101110111
00001010101101111000111010010011
00010011111101010011001110101011
11111111010101101101110101101111
11000001000110110110000100010000
11000100111001001000011101111001
00000101110010000101111100100011
00010101000000101100010101111110
00101000111101010000001110111001
11101101011110111011100111010000
00010000000010011000101101101001
11110011011111010000000000100011
00000101100000010000101001000011
00011100111010011011100010100000
11100010110101111011011100111010
00100010110010111110101000010100
00111011000011010000111111011011
00000011110100110010011001001111
11101011001101000001110101111101
11111101011100111101100000101011
00000101001000000101111001100000
10111110000000110101010010110010
11011011000000110001010011000100
11101001101100110010000110101010
11011000101111110001100101001000
10110110100100000111110110100000
00000010011010110101000011000001
11010111110001000111011110110001
11001011100111001100100001001111
01000110101001010110010001101110
11111110100110110010100101001011
00000001010100100110011111000110
11101011010110101000111011111100
00101011100011110001011011010010
01001000000000110110000111011111
00010111110001101111001011011100
11011111001001001101111110011111
00100111110011000101111100101110
11111011001100100011111100100000
00111101111100110011000000000000
00000101101011111000110111011100
00011011100110000111001011111010
11110000100011111001000000010110
